<unk>	0
<s>	0
</s>	0
▁t	-0
▁a	-1
he	-2
in	-3
▁s	-4
▁the	-5
re	-6
▁w	-7
▁o	-8
is	-9
er	-10
nd	-11
▁m	-12
▁f	-13
▁b	-14
it	-15
ha	-16
ing	-17
▁c	-18
en	-19
es	-20
or	-21
ou	-22
on	-23
ll	-24
▁and	-25
▁to	-26
▁of	-27
▁p	-28
▁d	-29
ed	-30
an	-31
at	-32
▁in	-33
▁l	-34
ar	-35
as	-36
▁I	-37
om	-38
▁is	-39
his	-40
br	-41
▁g	-42
ic	-43
▁/	-44
▁/>	-45
le	-46
▁e	-47
hat	-48
ot	-49
▁n	-50
ut	-51
st	-52
▁it	-53
ct	-54
al	-55
il	-56
▁T	-57
▁be	-58
ie	-59
▁mo	-60
ve	-61
ly	-62
▁ha	-63
▁re	-64
ho	-65
▁on	-66
▁that	-67
ver	-68
▁this	-69
ent	-70
ra	-71
▁he	-72
im	-73
ion	-74
se	-75
▁st	-76
ay	-77
et	-78
gh	-79
▁mov	-80
▁was	-81
id	-82
▁y	-83
▁/><	-84
ilm	-85
ith	-86
▁film	-87
ad	-88
▁for	-89
▁A	-90
▁as	-91
all	-92
ro	-93
ch	-94
▁u	-95
ce	-96
ke	-97
▁S	-98
ld	-99
▁an	-100
▁with	-101
▁movie	-102
▁se	-103
▁The	-104
oo	-105
▁h	-106
▁you	-107
ir	-108
ri	-109
.<	-110
ow	-111
▁th	-112
am	-113
▁B	-114
her	-115
▁li	-116
▁but	-117
▁M	-118
ur	-119
▁we	-120
▁not	-121
ill	-122
ally	-123
▁(	-124
ter	-125
▁C	-126
▁"	-127
▁H	-128
ck	-129
▁are	-130
ome	-131
▁W	-132
ould	-133
..	-134
pe	-135
ers	-136
▁his	-137
▁at	-138
ul	-139
▁have	-140
▁D	-141
ght	-142
un	-143
if	-144
em	-145
ust	-146
▁j	-147
▁sc	-148
▁su	-149
▁act	-150
out	-151
▁do	-152
▁fr	-153
ble	-154
▁one	-155
▁ex	-156
ain	-157
ess	-158
▁who	-159
▁k	-160
el	-161
▁so	-162
very	-163
▁pl	-164
▁com	-165
▁all	-166
ood	-167
ies	-168
▁ab	-169
art	-170
pp	-171
ant	-172
how	-173
us	-174
▁cha	-175
▁al	-176
▁by	-177
ag	-178
ak	-179
▁v	-180
ol	-181
▁wh	-182
est	-183
▁P	-184
ous	-185
▁de	-186
▁L	-187
▁wor	-188
▁like	-189
▁R	-190
ist	-191
one	-192
ast	-193
▁ne	-194
▁they	-195
▁from	-196
▁F	-197
op	-198
▁out	-199
ven	-200
▁some	-201
and	-202
th	-203
▁int	-204
▁J	-205
qu	-206
▁whe	-207
▁It	-208
▁G	-209
ough	-210
▁or	-211
fe	-212
um	-213
red	-214
au	-215
ation	-216
▁con	-217
▁her	-218
▁r	-219
▁me	-220
▁just	-221
▁about	-222
▁has	-223
ory	-224
ract	-225
res	-226
ind	-227
ive	-228
▁N	-229
▁pro	-230
▁can	-231
ate	-232
▁tim	-233
ort	-234
pt	-235
os	-236
ack	-237
▁un	-238
▁E	-239
ig	-240
ire	-241
ud	-242
▁good	-243
ake	-244
reat	-245
▁wat	-246
▁O	-247
ight	-248
▁le	-249
▁charact	-250
▁any	-251
ook	-252
han	-253
▁lo	-254
ong	-255
▁man	-256
▁get	-257
▁more	-258
ich	-259
▁up	-260
▁go	-261
▁very	-262
▁see	-263
▁would	-264
▁my	-265
▁no	-266
▁fe	-267
▁what	-268
ity	-269
The	-270
▁tr	-271
▁fa	-272
▁This	-273
ound	-274
ther	-275
ite	-276
▁story	-277
▁sh	-278
▁there	-279
nt	-280
od	-281
ge	-282
▁bec	-283
▁time	-284
▁1	-285
ide	-286
▁she	-287
hing	-288
▁really	-289
▁en	-290
▁when	-291
ard	-292
▁were	-293
▁-	-294
ame	-295
▁had	-296
▁watch	-297
oy	-298
▁only	-299
itt	-300
ure	-301
able	-302
lf	-303
ell	-304
▁if	-305
▁show	-306
▁K	-307
▁scen	-308
ink	-309
▁even	-310
ci	-311
▁their	-312
▁per	-313
▁other	-314
ore	-315
so	-316
ick	-317
▁which	-318
▁cl	-319
pl	-320
man	-321
ab	-322
te	-323
▁him	-324
▁did	-325
▁than	-326
ment	-327
ine	-328
ond	-329
our	-330
ars	-331
▁kn	-332
▁end	-333
▁them	-334
▁does	-335
ious	-336
uch	-337
og	-338
▁bad	-339
▁pe	-340
ause	-341
▁great	-342
ays	-343
...	-344
ves	-345
ade	-346
▁bet	-347
ice	-348
▁much	-349
▁look	-350
ople	-351
▁qu	-352
irect	-353
irst	-354
▁could	-355
are	-356
per	-357
ue	-358
▁will	-359
▁po	-360
▁over	-361
▁been	-362
▁ar	-363
ple	-364
▁how	-365
▁well	-366
▁im	-367
▁think	-368
▁pre	-369
▁people	-370
▁ro	-371
ne	-372
int	-373
▁into	-374
▁most	-375
ence	-376
ry	-377
▁know	-378
▁tw	-379
▁because	-380
ert	-381
ass	-382
▁too	-383
for	-384
age	-385
ng	-386
▁ad	-387
other	-388
▁made	-389
ful	-390
▁dis	-391
ors	-392
▁ag	-393
▁direct	-394
ac	-395
▁make	-396
▁us	-397
fter	-398
▁first	-399
▁every	-400
▁am	-401
ff	-402
▁real	-403
▁part	-404
▁thing	-405
ny	-406
▁fun	-407
▁off	-408
ull	-409
▁movies	-410
▁way	-411
▁sa	-412
ere	-413
ving	-414
ict	-415
ile	-416
▁don	-417
ish	-418
ty	-419
▁wr	-420
▁also	-421
ap	-422
▁seem	-423
▁'	-424
ary	-425
gin	-426
oll	-427
▁its	-428
ep	-429
▁mak	-430
ical	-431
ated	-432
▁character	-433
iew	-434
wn	-435
▁work	-436
▁Y	-437
▁characters	-438
ian	-439
ress	-440
▁sp	-441
hed	-442
▁gu	-443
▁bl	-444
ually	-445
▁plot	-446
ial	-447
▁seen	-448
▁And	-449
pect	-450
▁fl	-451
ces	-452
▁films	-453
▁ye	-454
▁play	-455
▁your	-456
fect	-457
ob	-458
cc	-459
▁te	-460
▁acting	-461
▁then	-462
▁want	-463
ittle	-464
self	-465
iz	-466
▁aw	-467
▁ser	-468
omet	-469
▁But	-470
ost	-471
▁V	-472
rough	-473
▁love	-474
▁being	-475
▁say	-476
▁after	-477
ved	-478
▁many	-479
▁two	-480
▁In	-481
).	-482
▁never	-483
get	-484
),	-485
me	-486
mer	-487
ans	-488
▁little	-489
▁ho	-490
▁through	-491
nder	-492
▁best	-493
▁back	-494
▁life	-495
urn	-496
ily	-497
▁ent	-498
▁He	-499
own	-500
▁ever	-501
ens	-502
▁rem	-503
▁where	-504
▁<	-505
▁somet	-506
ild	-507
ult	-508
▁better	-509
ark	-510
▁hor	-511
ip	-512
▁rec	-513
ever	-514
!!	-515
ather	-516
ber	-517
du	-518
hy	-519
▁des	-520
▁St	-521
▁i	-522
ris	-523
we	-524
▁ra	-525
vel	-526
▁perfor	-527
▁should	-528
▁br	-529
ace	-530
ought	-531
ual	-532
ions	-533
▁find	-534
ach	-535
be	-536
ance	-537
▁spe	-538
thing	-539
▁sl	-540
▁There	-541
ru	-542
▁feel	-543
▁ch	-544
▁U	-545
vers	-546
ertain	-547
▁2	-548
▁scene	-549
iend	-550
▁scenes	-551
less	-552
▁still	-553
les	-554
▁again	-555
lie	-556
ting	-557
erest	-558
▁min	-559
▁here	-560
ents	-561
▁att	-562
▁cont	-563
▁ri	-564
▁under	-565
hose	-566
rap	-567
ia	-568
▁interest	-569
rd	-570
ning	-571
igh	-572
▁19	-573
▁kill	-574
ason	-575
▁cast	-576
▁such	-577
▁happ	-578
▁something	-579
▁old	-580
ree	-581
fore	-582
ren	-583
▁performan	-584
ably	-585
▁lot	-586
▁inc	-587
▁fam	-588
ense	-589
▁tra	-590
ating	-591
ying	-592
▁may	-593
arly	-594
▁these	-595
joy	-596
▁Al	-597
▁watching	-598
ase	-599
ise	-600
ction	-601
▁imp	-602
ations	-603
the	-604
alk	-605
▁gi	-606
▁actors	-607
augh	-608
▁doesn	-609
▁sur	-610
reen	-611
▁hum	-612
▁point	-613
▁If	-614
▁enjoy	-615
▁years	-616
ater	-617
▁ap	-618
▁gir	-619
▁mus	-620
ror	-621
▁dec	-622
▁didn	-623
▁those	-624
▁che	-625
▁funny	-626
up	-627
▁sim	-628
▁wom	-629
iv	-630
ang	-631
▁set	-632
▁start	-633
▁res	-634
▁gen	-635
▁view	-636
oth	-637
▁makes	-638
▁cou	-639
edy	-640
▁few	-641
▁Jo	-642
▁fact	-643
▁belie	-644
▁guy	-645
ute	-646
ffect	-647
▁pr	-648
▁Ch	-649
▁pret	-650
▁got	-651
▁going	-652
▁down	-653
▁actually	-654
erson	-655
oss	-656
rigin	-657
▁dra	-658
▁same	-659
▁comp	-660
▁ob	-661
ath	-662
az	-663
rit	-664
der	-665
▁young	-666
li	-667
▁ev	-668
▁origin	-669
▁before	-670
iss	-671
ript	-672
▁fin	-673
▁long	-674
▁tak	-675
▁exce	-676
aw	-677
▁supp	-678
▁ter	-679
cial	-680
▁though	-681
▁thought	-682
**	-683
▁why	-684
ps	-685
▁bit	-686
▁produ	-687
▁dif	-688
▁em	-689
ale	-690
av	-691
▁director	-692
oc	-693
▁ke	-694
▁big	-695
▁now	-696
ience	-697
▁new	-698
▁nothing	-699
▁while	-700
hen	-701
ub	-702
▁girl	-703
ect	-704
ible	-705
▁own	-706
▁tri	-707
ft	-708
aut	-709
ince	-710
ons	-711
▁sub	-712
▁turn	-713
onder	-714
▁pretty	-715
▁quite	-716
▁sm	-717
act	-718
▁another	-719
--	-720
de	-721
iting	-722
▁comple	-723
ose	-724
rent	-725
ched	-726
▁rel	-727
▁friend	-728
▁seems	-729
▁original	-730
▁script	-731
▁effect	-732
▁inv	-733
▁around	-734
▁things	-735
▁app	-736
ways	-737
ran	-738
sp	-739
▁hard	-740
ings	-741
▁need	-742
▁enough	-743
▁As	-744
ave	-745
ew	-746
▁world	-747
ign	-748
▁kid	-749
▁screen	-750
ib	-751
00	-752
most	-753
▁right	-754
ically	-755
▁high	-756
rill	-757
ween	-758
meric	-759
ced	-760
ately	-761
▁kind	-762
▁give	-763
ster	-764
▁far	-765
▁co	-766
▁wonder	-767
▁sha	-768
ness	-769
▁gr	-770
▁You	-771
▁appe	-772
inem	-773
ention	-774
▁acc	-775
▁She	-776
▁saw	-777
▁between	-778
ks	-779
▁take	-780
▁must	-781
▁sec	-782
▁person	-783
utes	-784
▁series	-785
▁times	-786
▁role	-787
▁es	-788
▁ep	-789
▁gets	-790
▁reason	-791
▁interesting	-792
ead	-793
ma	-794
▁child	-795
▁action	-796
▁horror	-797
ward	-798
▁always	-799
▁&	-800
▁How	-801
▁read	-802
▁isn	-803
▁tell	-804
hes	-805
▁mom	-806
▁bu	-807
▁least	-808
▁whole	-809
app	-810
icul	-811
vious	-812
▁sex	-813
▁comedy	-814
▁class	-815
▁music	-816
▁beaut	-817
▁op	-818
▁put	-819
",	-820
ife	-821
▁family	-822
ody	-823
▁expect	-824
▁come	-825
▁done	-826
ord	-827
ouse	-828
▁hel	-829
▁Americ	-830
▁main	-831
its	-832
▁bas	-833
▁rev	-834
here	-835
▁without	-836
▁minutes	-837
rible	-838
▁lead	-839
ully	-840
ines	-841
▁might	-842
▁They	-843
ok	-844
▁almost	-845
row	-846
▁diffe	-847
▁both	-848
▁sho	-849
▁cinem	-850
hn	-851
bably	-852
▁laugh	-853
▁anything	-854
▁performance	-855
▁sound	-856
ock	-857
gg	-858
▁ide	-859
▁shot	-860
▁worth	-861
▁last	-862
▁complete	-863
ash	-864
▁cam	-865
▁hand	-866
arn	-867
▁3	-868
stand	-869
▁entertain	-870
though	-871
▁aud	-872
xt	-873
cially	-874
ime	-875
▁expl	-876
▁book	-877
oney	-878
▁bo	-879
▁begin	-880
▁care	-881
▁An	-882
uring	-883
mend	-884
pris	-885
▁cour	-886
▁inst	-887
arr	-888
▁What	-889
".	-890
▁since	-891
ograp	-892
▁cons	-893
isod	-894
▁found	-895
▁art	-896
This	-897
▁cle	-898
ov	-899
▁el	-900
▁10	-901
▁TV	-902
ialog	-903
▁sure	-904
▁worst	-905
▁probably	-906
pecially	-907
▁episod	-908
oint	-909
era	-910
ray	-911
ret	-912
▁woman	-913
▁sequ	-914
▁dialog	-915
▁away	-916
als	-917
led	-918
son	-919
▁lik	-920
ures	-921
ative	-922
ner	-923
rist	-924
▁abs	-925
ms	-926
▁vers	-927
▁rather	-928
▁happen	-929
▁ext	-930
▁call	-931
umb	-932
▁car	-933
ros	-934
▁cr	-935
▁making	-936
VD	-937
▁Be	-938
▁So	-939
▁poor	-940
▁run	-941
wood	-942
ling	-943
▁beautif	-944
ommend	-945
▁ins	-946
ither	-947
▁chan	-948
osed	-949
▁believe	-950
▁John	-951
atch	-952
ER	-953
ee	-954
▁keep	-955
olly	-956
ail	-957
apt	-958
ten	-959
ition	-960
sc	-961
▁job	-962
▁mean	-963
▁different	-964
▁bor	-965
▁DVD	-966
▁let	-967
▁add	-968
▁trying	-969
icha	-970
▁course	-971
ane	-972
▁anyone	-973
ics	-974
▁surpris	-975
ney	-976
▁del	-977
co	-978
dd	-979
▁That	-980
uck	-981
fin	-982
▁mind	-983
▁our	-984
▁comes	-985
ream	-986
▁money	-987
aster	-988
▁day	-989
ments	-990
▁Not	-991
▁each	-992
▁rest	-993
▁goes	-994
▁help	-995
▁watched	-996
▁sense	-997
▁wasn	-998
."	-999
▁recommend	-1000
▁ending	-1001
▁less	-1002
▁De	-1003
▁looks	-1004
▁super	-1005
It	-1006
▁We	-1007
▁ty	-1008
▁stand	-1009
▁place	-1010
ingly	-1011
▁played	-1012
ont	-1013
ollow	-1014
ex	-1015
read	-1016
istic	-1017
▁actor	-1018
ality	-1019
iece	-1020
ortun	-1021
ject	-1022
▁fan	-1023
▁str	-1024
▁shows	-1025
▁pol	-1026
hip	-1027
▁gl	-1028
llent	-1029
empt	-1030
ember	-1031
▁perfect	-1032
▁boy	-1033
▁fav	-1034
▁port	-1035
▁All	-1036
▁proble	-1037
arent	-1038
lud	-1039
way	-1040
leas	-1041
▁plays	-1042
▁pres	-1043
ilar	-1044
▁short	-1045
▁gra	-1046
▁Sc	-1047
▁yet	-1048
▁effects	-1049
▁half	-1050
▁Bl	-1051
▁war	-1052
▁inter	-1053
▁cre	-1054
▁review	-1055
▁nice	-1056
10	-1057
ates	-1058
▁low	-1059
gether	-1060
▁together	-1061
▁ac	-1062
▁looking	-1063
▁understand	-1064
▁second	-1065
▁sit	-1066
▁true	-1067
▁having	-1068
....	-1069
cing	-1070
▁else	-1071
▁follow	-1072
▁TH	-1073
▁conf	-1074
▁miss	-1075
▁Re	-1076
▁creat	-1077
▁special	-1078
▁audience	-1079
not	-1080
▁said	-1081
▁exper	-1082
▁someone	-1083
▁version	-1084
▁When	-1085
▁head	-1086
ism	-1087
ident	-1088
omb	-1089
▁exc	-1090
▁especially	-1091
▁takes	-1092
▁ed	-1093
▁poss	-1094
ollywood	-1095
▁certain	-1096
▁fall	-1097
old	-1098
ted	-1099
▁beautiful	-1100
▁dep	-1101
▁excellent	-1102
▁For	-1103
ues	-1104
▁came	-1105
▁talk	-1106
day	-1107
▁imag	-1108
0'	-1109
▁idea	-1110
▁night	-1111
ix	-1112
▁seeing	-1113
▁hour	-1114
upid	-1115
▁anim	-1116
appoint	-1117
atter	-1118
ied	-1119
ature	-1120
udget	-1121
▁wife	-1122
▁Cha	-1123
▁cho	-1124
▁vis	-1125
▁himself	-1126
ames	-1127
land	-1128
▁My	-1129
▁father	-1130
ird	-1131
▁friends	-1132
▁Th	-1133
reak	-1134
▁year	-1135
▁left	-1136
▁three	-1137
▁obvious	-1138
ply	-1139
ited	-1140
atic	-1141
ired	-1142
ists	-1143
cept	-1144
▁sing	-1145
ier	-1146
▁disappoint	-1147
▁invol	-1148
▁Sp	-1149
▁entire	-1150
uff	-1151
like	-1152
▁det	-1153
▁dist	-1154
ional	-1155
▁ey	-1156
sy	-1157
▁Un	-1158
hile	-1159
▁American	-1160
▁mur	-1161
▁mar	-1162
▁use	-1163
▁everything	-1164
ared	-1165
fully	-1166
▁Ste	-1167
▁Christ	-1168
ides	-1169
▁Cl	-1170
▁mon	-1171
▁home	-1172
io	-1173
▁everyone	-1174
hool	-1175
▁stupid	-1176
▁sk	-1177
olute	-1178
▁tal	-1179
ah	-1180
▁comm	-1181
ower	-1182
▁tot	-1183
▁later	-1184
▁Se	-1185
▁ele	-1186
att	-1187
▁lack	-1188
▁during	-1189
▁4	-1190
▁once	-1191
▁fight	-1192
my	-1193
ery	-1194
but	-1195
▁completely	-1196
cy	-1197
▁attempt	-1198
▁mem	-1199
ins	-1200
▁unt	-1201
ork	-1202
▁sty	-1203
ross	-1204
▁pict	-1205
▁defin	-1206
▁men	-1207
orn	-1208
▁song	-1209
med	-1210
▁performances	-1211
▁mess	-1212
▁simply	-1213
▁hist	-1214
▁Hollywood	-1215
▁used	-1216
▁serious	-1217
▁heart	-1218
iol	-1219
itten	-1220
ography	-1221
▁Rob	-1222
air	-1223
ount	-1224
ideo	-1225
▁ph	-1226
▁cra	-1227
▁boring	-1228
▁At	-1229
▁top	-1230
▁wrong	-1231
/10	-1232
ool	-1233
▁death	-1234
▁supposed	-1235
lease	-1236
▁kids	-1237
▁try	-1238
▁stud	-1239
iter	-1240
▁One	-1241
▁tit	-1242
ott	-1243
▁Ar	-1244
▁absolute	-1245
elt	-1246
▁However	-1247
▁star	-1248
▁line	-1249
▁either	-1250
▁includ	-1251
▁Mar	-1252
▁fail	-1253
fic	-1254
ien	-1255
uly	-1256
▁gener	-1257
vin	-1258
▁human	-1259
▁small	-1260
oon	-1261
▁classic	-1262
▁eas	-1263
▁ass	-1264
ove	-1265
▁pain	-1266
ider	-1267
ote	-1268
itely	-1269
▁Man	-1270
ets	-1271
▁cop	-1272
▁loc	-1273
▁word	-1274
▁favor	-1275
▁rep	-1276
▁house	-1277
velop	-1278
▁rom	-1279
▁8	-1280
na	-1281
com	-1282
▁sad	-1283
▁black	-1284
▁production	-1285
▁count	-1286
▁given	-1287
▁camera	-1288
▁5	-1289
idd	-1290
▁won	-1291
ening	-1292
▁--	-1293
▁ret	-1294
▁conc	-1295
▁flick	-1296
▁wa	-1297
haps	-1298
▁light	-1299
▁women	-1300
▁couple	-1301
▁truly	-1302
▁exam	-1303
▁sy	-1304
ains	-1305
▁hope	-1306
▁ind	-1307
uth	-1308
vis	-1309
▁moments	-1310
▁particul	-1311
▁amaz	-1312
▁emot	-1313
▁awful	-1314
▁episode	-1315
▁remember	-1316
fortun	-1317
▁portray	-1318
▁along	-1319
▁becom	-1320
▁No	-1321
▁until	-1322
▁school	-1323
▁7	-1324
play	-1325
▁Well	-1326
▁sort	-1327
▁humor	-1328
ities	-1329
iant	-1330
ize	-1331
ike	-1332
ming	-1333
▁budget	-1334
▁pass	-1335
▁viol	-1336
▁instead	-1337
iness	-1338
ug	-1339
ories	-1340
▁cred	-1341
▁terrible	-1342
▁except	-1343
▁wonderful	-1344
▁hat	-1345
▁stars	-1346
ric	-1347
▁full	-1348
▁doing	-1349
▁liked	-1350
aring	-1351
▁getting	-1352
▁Le	-1353
ented	-1354
▁slow	-1355
mak	-1356
orm	-1357
sel	-1358
aj	-1359
▁Car	-1360
▁lines	-1361
IN	-1362
▁gives	-1363
ler	-1364
imes	-1365
▁guess	-1366
▁video	-1367
▁dialogue	-1368
▁exp	-1369
▁waste	-1370
▁playing	-1371
▁piece	-1372
▁develop	-1373
▁9	-1374
▁hero	-1375
ently	-1376
▁name	-1377
▁On	-1378
▁Don	-1379
▁ann	-1380
riend	-1381
▁.	-1382
▁Will	-1383
ony	-1384
▁z	-1385
▁itself	-1386
ister	-1387
que	-1388
ibly	-1389
▁Mr	-1390
▁felt	-1391
▁next	-1392
ility	-1393
▁couldn	-1394
line	-1395
▁impress	-1396
▁others	-1397
cess	-1398
ton	-1399
hol	-1400
und	-1401
mp	-1402
,"	-1403
▁early	-1404
▁however	-1405
right	-1406
▁entertaining	-1407
▁live	-1408
▁brill	-1409
reme	-1410
rom	-1411
illy	-1412
▁dri	-1413
aughter	-1414
ument	-1415
ger	-1416
▁often	-1417
▁reg	-1418
▁coll	-1419
▁fant	-1420
▁close	-1421
▁actress	-1422
▁went	-1423
▁adv	-1424
▁children	-1425
▁face	-1426
ized	-1427
▁cor	-1428
▁rent	-1429
▁case	-1430
ts	-1431
ley	-1432
▁mis	-1433
▁absolutely	-1434
▁become	-1435
tic	-1436
tern	-1437
oot	-1438
▁quest	-1439
▁definitely	-1440
▁mention	-1441
ank	-1442
▁dead	-1443
▁maybe	-1444
▁worse	-1445
▁mother	-1446
▁THE	-1447
▁Even	-1448
▁strong	-1449
▁vo	-1450
ax	-1451
▁title	-1452
▁thrill	-1453
▁Dav	-1454
▁beginning	-1455
▁cut	-1456
▁rid	-1457
▁written	-1458
▁New	-1459
▁form	-1460
▁dark	-1461
body	-1462
gr	-1463
used	-1464
ccess	-1465
▁style	-1466
rew	-1467
▁seemed	-1468
▁problem	-1469
▁relations	-1470
yn	-1471
▁support	-1472
ined	-1473
▁trans	-1474
iam	-1475
ided	-1476
▁loved	-1477
▁picture	-1478
ured	-1479
unch	-1480
itch	-1481
▁Some	-1482
▁After	-1483
▁power	-1484
▁pred	-1485
▁Mc	-1486
oub	-1487
▁past	-1488
ready	-1489
▁against	-1490
ular	-1491
▁somew	-1492
cha	-1493
fortunately	-1494
▁direction	-1495
pite	-1496
▁char	-1497
▁side	-1498
▁To	-1499
▁fine	-1500
▁Jack	-1501
In	-1502
▁adm	-1503
▁ref	-1504
lish	-1505
▁brilliant	-1506
veral	-1507
by	-1508
ichael	-1509
▁sw	-1510
▁lives	-1511
ific	-1512
▁cinema	-1513
▁brother	-1514
▁several	-1515
vable	-1516
▁extreme	-1517
▁success	-1518
▁certainly	-1519
▁fans	-1520
▁drama	-1521
▁already	-1522
▁wanted	-1523
▁writing	-1524
vo	-1525
▁although	-1526
ump	-1527
▁et	-1528
▁annoy	-1529
amp	-1530
▁becomes	-1531
selves	-1532
ung	-1533
▁example	-1534
▁enjoyed	-1535
▁tou	-1536
unk	-1537
ried	-1538
▁quality	-1539
▁His	-1540
▁pop	-1541
▁relationship	-1542
▁Har	-1543
▁Eng	-1544
▁mag	-1545
rop	-1546
pped	-1547
▁cent	-1548
▁matter	-1549
▁sat	-1550
▁blood	-1551
▁totally	-1552
!<	-1553
).<	-1554
▁works	-1555
▁Is	-1556
▁lost	-1557
▁master	-1558
▁Sha	-1559
▁deser	-1560
▁self	-1561
▁town	-1562
oil	-1563
ec	-1564
▁list	-1565
??	-1566
orge	-1567
▁pur	-1568
uss	-1569
▁gave	-1570
▁tries	-1571
▁comment	-1572
▁based	-1573
▁guys	-1574
▁amazing	-1575
OT	-1576
enn	-1577
▁favorite	-1578
ief	-1579
▁viewer	-1580
▁wants	-1581
▁doc	-1582
▁val	-1583
▁walk	-1584
▁called	-1585
▁throughout	-1586
gu	-1587
hind	-1588
▁pat	-1589
▁eff	-1590
▁col	-1591
▁par	-1592
▁killer	-1593
▁psy	-1594
▁stuff	-1595
▁Dan	-1596
▁dem	-1597
▁med	-1598
▁son	-1599
▁capt	-1600
▁vill	-1601
chn	-1602
▁daughter	-1603
▁able	-1604
ages	-1605
itive	-1606
▁mor	-1607
▁myster	-1608
to	-1609
rib	-1610
▁etc	-1611
using	-1612
▁history	-1613
rown	-1614
▁occ	-1615
▁parts	-1616
▁fair	-1617
ern	-1618
use	-1619
ination	-1620
aul	-1621
▁num	-1622
▁fem	-1623
▁days	-1624
▁today	-1625
oke	-1626
▁deal	-1627
▁genre	-1628
ots	-1629
▁bra	-1630
dy	-1631
range	-1632
▁horrible	-1633
▁thinking	-1634
▁,	-1635
ches	-1636
▁Fran	-1637
▁With	-1638
ude	-1639
▁hon	-1640
▁starts	-1641
▁novel	-1642
▁myself	-1643
lo	-1644
▁Michael	-1645
ished	-1646
▁situ	-1647
▁game	-1648
▁break	-1649
▁late	-1650
▁prov	-1651
▁finally	-1652
If	-1653
▁typ	-1654
▁stra	-1655
▁Brit	-1656
▁cult	-1657
hich	-1658
astic	-1659
▁appear	-1660
▁Also	-1661
oup	-1662
▁learn	-1663
▁Just	-1664
▁cost	-1665
▁crit	-1666
▁turns	-1667
leased	-1668
▁incred	-1669
There	-1670
ox	-1671
ajor	-1672
▁themselves	-1673
▁evil	-1674
iculous	-1675
▁behind	-1676
▁feeling	-1677
▁import	-1678
ovie	-1679
▁fig	-1680
▁decent	-1681
▁inf	-1682
rodu	-1683
▁susp	-1684
ik	-1685
okes	-1686
▁intell	-1687
▁level	-1688
▁feat	-1689
▁roles	-1690
▁consider	-1691
▁contin	-1692
▁moment	-1693
▁cinemat	-1694
▁prom	-1695
▁girls	-1696
ese	-1697
band	-1698
▁final	-1699
▁predict	-1700
▁effort	-1701
▁musical	-1702
▁stories	-1703
ural	-1704
▁heard	-1705
▁Why	-1706
tra	-1707
▁hilar	-1708
▁exact	-1709
▁document	-1710
▁opp	-1711
▁voice	-1712
.)	-1713
▁ask	-1714
▁lea	-1715
▁Then	-1716
▁ir	-1717
▁pick	-1718
AN	-1719
els	-1720
▁eyes	-1721
▁opin	-1722
19	-1723
usband	-1724
LL	-1725
▁deli	-1726
▁foot	-1727
▁white	-1728
urt	-1729
▁bus	-1730
▁stop	-1731
▁involved	-1732
ior	-1733
▁sn	-1734
▁soon	-1735
▁ridiculous	-1736
▁directed	-1737
ient	-1738
▁mot	-1739
▁type	-1740
▁cannot	-1741
ene	-1742
▁weak	-1743
▁While	-1744
▁dream	-1745
▁killed	-1746
▁win	-1747
▁took	-1748
▁crap	-1749
antic	-1750
ron	-1751
▁sle	-1752
▁murder	-1753
ives	-1754
▁ago	-1755
mb	-1756
che	-1757
▁May	-1758
ey	-1759
arb	-1760
▁hit	-1761
▁stru	-1762
▁major	-1763
...<	-1764
nded	-1765
AT	-1766
▁tele	-1767
▁const	-1768
▁Her	-1769
▁happens	-1770
▁happened	-1771
ky	-1772
yp	-1773
▁Every	-1774
uge	-1775
ards	-1776
▁experience	-1777
urb	-1778
arth	-1779
▁Ge	-1780
▁Of	-1781
ichard	-1782
▁non	-1783
▁wouldn	-1784
gan	-1785
ape	-1786
▁Robert	-1787
▁husband	-1788
▁hilarious	-1789
▁God	-1790
ering	-1791
▁perhaps	-1792
gs	-1793
▁fore	-1794
▁bring	-1795
▁speak	-1796
▁prof	-1797
▁group	-1798
▁chance	-1799
uc	-1800
aug	-1801
▁6	-1802
▁looked	-1803
▁extremely	-1804
ST	-1805
▁age	-1806
ences	-1807
antly	-1808
ph	-1809
▁fut	-1810
▁told	-1811
▁violence	-1812
▁Ed	-1813
▁teen	-1814
▁result	-1815
▁Ger	-1816
matic	-1817
iet	-1818
▁hold	-1819
▁shoot	-1820
▁says	-1821
▁highly	-1822
cks	-1823
▁swe	-1824
zy	-1825
vision	-1826
▁annoying	-1827
▁Ke	-1828
ters	-1829
▁techn	-1830
▁career	-1831
▁Ind	-1832
▁opinion	-1833
▁Osc	-1834
▁chang	-1835
▁cheap	-1836
▁dr	-1837
side	-1838
▁Char	-1839
▁comed	-1840
!!!!	-1841
▁room	-1842
ution	-1843
▁stay	-1844
▁yourself	-1845
▁Pe	-1846
▁sometimes	-1847
ys	-1848
ira	-1849
▁pos	-1850
▁event	-1851
▁simple	-1852
sh	-1853
▁move	-1854
enty	-1855
▁coming	-1856
ique	-1857
▁200	-1858
iddle	-1859
▁desc	-1860
▁similar	-1861
▁shown	-1862
void	-1863
▁cool	-1864
▁score	-1865
But	-1866
apan	-1867
▁sol	-1868
▁strange	-1869
ON	-1870
▁cinematography	-1871
ational	-1872
▁Pet	-1873
▁jokes	-1874
▁leave	-1875
mos	-1876
off	-1877
▁Pl	-1878
▁James	-1879
▁quick	-1880
bel	-1881
▁ste	-1882
▁phot	-1883
ered	-1884
▁disappointed	-1885
amed	-1886
▁Now	-1887
▁started	-1888
ina	-1889
inc	-1890
▁season	-1891
ats	-1892
gra	-1893
rest	-1894
ential	-1895
▁esc	-1896
ement	-1897
▁usual	-1898
▁foc	-1899
▁inde	-1900
▁hours	-1901
▁ang	-1902
▁prem	-1903
▁released	-1904
▁obviously	-1905
▁met	-1906
▁pay	-1907
▁gore	-1908
▁writer	-1909
▁country	-1910
▁shock	-1911
And	-1912
ground	-1913
▁wish	-1914
itting	-1915
pping	-1916
▁rating	-1917
▁particularly	-1918
ones	-1919
▁unc	-1920
wards	-1921
ury	-1922
aged	-1923
▁ill	-1924
▁body	-1925
▁deep	-1926
▁huge	-1927
▁polit	-1928
nds	-1929
ians	-1930
▁episodes	-1931
▁ones	-1932
▁treat	-1933
▁number	-1934
▁Richard	-1935
▁apparent	-1936
of	-1937
▁plan	-1938
▁talent	-1939
lt	-1940
▁wee	-1941
▁disco	-1942
▁possible	-1943
▁somewhat	-1944
▁English	-1945
RE	-1946
▁known	-1947
▁!	-1948
unt	-1949
▁taken	-1950
ching	-1951
▁doub	-1952
▁stre	-1953
▁sister	-1954
▁ends	-1955
▁Paul	-1956
rence	-1957
▁four	-1958
▁moder	-1959
reci	-1960
▁allow	-1961
▁Tom	-1962
▁forget	-1963
ubl	-1964
▁lad	-1965
lling	-1966
▁David	-1967
▁alone	-1968
ield	-1969
▁Japan	-1970
outh	-1971
▁pot	-1972
hetic	-1973
▁shots	-1974
▁change	-1975
▁attention	-1976
▁sent	-1977
▁exactly	-1978
▁subject	-1979
mosp	-1980
▁saying	-1981
mas	-1982
ouble	-1983
aim	-1984
ator	-1985
▁var	-1986
▁El	-1987
ball	-1988
wise	-1989
▁Per	-1990
ppy	-1991
▁colle	-1992
▁finds	-1993
▁filmmak	-1994
iety	-1995
▁gun	-1996
▁female	-1997
▁Or	-1998
▁hot	-1999
▁local	-2000
▁disc	-2001
any	-2002
****	-2003
▁laug	-2004
▁songs	-2005
▁return	-2006
▁Ad	-2007
real	-2008
▁across	-2009
oud	-2010
▁honest	-2011
▁William	-2012
▁documentary	-2013
▁fill	-2014
▁knew	-2015
▁lar	-2016
▁near	-2017
▁zomb	-2018
▁police	-2019
!"	-2020
▁atmosp	-2021
▁remind	-2022
▁talking	-2023
▁(19	-2024
▁single	-2025
ald	-2026
ino	-2027
▁turned	-2028
▁suspense	-2029
▁Br	-2030
▁adult	-2031
▁ca	-2032
▁running	-2033
▁pull	-2034
▁War	-2035
▁save	-2036
▁parent	-2037
▁opening	-2038
▁whose	-2039
▁convin	-2040
▁predictable	-2041
light	-2042
▁intellig	-2043
ili	-2044
ctor	-2045
▁Bra	-2046
ING	-2047
▁Do	-2048
▁mist	-2049
cer	-2050
eng	-2051
▁Dis	-2052
▁hop	-2053
▁compl	-2054
▁reality	-2055
▁usually	-2056
aced	-2057
otic	-2058
▁silly	-2059
▁build	-2060
▁living	-2061
▁British	-2062
▁important	-2063
▁television	-2064
▁Ne	-2065
▁dest	-2066
▁enjoyable	-2067
iction	-2068
▁events	-2069
▁Gra	-2070
head	-2071
▁Any	-2072
▁dan	-2073
▁order	-2074
▁scary	-2075
ush	-2076
▁20	-2077
▁aren	-2078
▁vict	-2079
iel	-2080
ustr	-2081
▁hell	-2082
▁appreci	-2083
▁cart	-2084
▁straight	-2085
aris	-2086
▁dull	-2087
▁middle	-2088
▁ut	-2089
▁ten	-2090
rench	-2091
ires	-2092
▁future	-2093
aid	-2094
▁Je	-2095
▁detail	-2096
iod	-2097
▁modern	-2098
▁pri	-2099
▁mark	-2100
▁apart	-2101
▁supporting	-2102
mm	-2103
▁subt	-2104
▁romantic	-2105
▁box	-2106
▁unf	-2107
▁fast	-2108
▁problems	-2109
▁Me	-2110
▁inn	-2111
▁despite	-2112
▁Oscar	-2113
asy	-2114
yond	-2115
▁OK	-2116
ital	-2117
usion	-2118
which	-2119
▁respect	-2120
ised	-2121
▁comic	-2122
orable	-2123
ubb	-2124
AR	-2125
olog	-2126
▁sign	-2127
uri	-2128
who	-2129
▁ve	-2130
▁mater	-2131
▁air	-2132
▁due	-2133
▁equ	-2134
▁happy	-2135
▁tells	-2136
▁seriously	-2137
▁Who	-2138
▁check	-2139
▁meet	-2140
▁sets	-2141
▁explain	-2142
▁entertainment	-2143
▁knows	-2144
▁including	-2145
rely	-2146
▁Wor	-2147
ura	-2148
▁easily	-2149
▁taking	-2150
OR	-2151
▁aspect	-2152
▁sequel	-2153
▁forg	-2154
▁surprised	-2155
▁pleas	-2156
▁team	-2157
▁creep	-2158
back	-2159
▁storyline	-2160
iest	-2161
▁falls	-2162
▁dev	-2163
▁First	-2164
anger	-2165
verage	-2166
▁words	-2167
▁material	-2168
▁needs	-2169
▁previous	-2170
▁haven	-2171
irector	-2172
▁sexual	-2173
▁thriller	-2174
asc	-2175
▁bro	-2176
track	-2177
▁none	-2178
▁mostly	-2179
As	-2180
▁eng	-2181
estern	-2182
orry	-2183
▁among	-2184
▁present	-2185
▁hands	-2186
oul	-2187
▁clich	-2188
▁clearly	-2189
▁sequence	-2190
▁IM	-2191
ltim	-2192
▁197	-2193
▁ear	-2194
▁question	-2195
▁York	-2196
▁open	-2197
▁Although	-2198
▁NOT	-2199
▁conv	-2200
▁message	-2201
!!!	-2202
▁Mor	-2203
▁prot	-2204
▁ways	-2205
▁198	-2206
▁narr	-2207
▁animation	-2208
▁actual	-2209
▁contro	-2210
ants	-2211
▁eye	-2212
aught	-2213
▁gang	-2214
▁camp	-2215
▁hate	-2216
EN	-2217
▁Con	-2218
▁giving	-2219
▁Sh	-2220
▁emb	-2221
ublic	-2222
▁superb	-2223
▁appears	-2224
go	-2225
▁German	-2226
ously	-2227
rison	-2228
▁bunch	-2229
▁setting	-2230
▁comments	-2231
form	-2232
inal	-2233
▁ant	-2234
▁above	-2235
aby	-2236
pend	-2237
▁Bro	-2238
▁doubt	-2239
▁moving	-2240
eth	-2241
▁King	-2242
▁flaw	-2243
▁spoil	-2244
iment	-2245
▁sold	-2246
▁spir	-2247
▁period	-2248
▁points	-2249
▁decided	-2250
What	-2251
▁land	-2252
▁secret	-2253
▁soundtrack	-2254
▁ru	-2255
▁Sam	-2256
ension	-2257
▁theme	-2258
▁odd	-2259
omp	-2260
?<	-2261
▁victim	-2262
gy	-2263
▁theat	-2264
▁beyond	-2265
work	-2266
▁Can	-2267
where	-2268
arre	-2269
alian	-2270
▁twist	-2271
ficult	-2272
▁George	-2273
▁comb	-2274
▁fell	-2275
ressed	-2276
▁feature	-2277
ara	-2278
',	-2279
▁clear	-2280
▁weird	-2281
▁slight	-2282
▁fantastic	-2283
▁suff	-2284
▁editing	-2285
ining	-2286
▁feels	-2287
▁insp	-2288
▁exist	-2289
▁kept	-2290
cl	-2291
▁overall	-2292
▁difficult	-2293
▁Su	-2294
ggest	-2295
▁adapt	-2296
▁visual	-2297
▁viewing	-2298
▁Am	-2299
▁viewers	-2300
OU	-2301
St	-2302
▁reviews	-2303
kes	-2304
▁Sim	-2305
▁cat	-2306
▁dru	-2307
▁wit	-2308
▁hear	-2309
ances	-2310
▁theater	-2311
Al	-2312
▁lame	-2313
▁easy	-2314
▁release	-2315
▁suggest	-2316
▁personal	-2317
▁Oh	-2318
atural	-2319
▁tried	-2320
▁elements	-2321
▁US	-2322
uses	-2323
▁tre	-2324
▁five	-2325
sw	-2326
view	-2327
▁buy	-2328
▁psyc	-2329
▁typical	-2330
bs	-2331
key	-2332
▁Disney	-2333
▁nearly	-2334
▁within	-2335
▁mil	-2336
▁working	-2337
irt	-2338
host	-2339
▁herself	-2340
bor	-2341
▁attack	-2342
▁showing	-2343
▁Gr	-2344
▁tale	-2345
▁leads	-2346
▁named	-2347
▁realistic	-2348
ices	-2349
▁famous	-2350
!)	-2351
▁mix	-2352
▁trag	-2353
▁accept	-2354
ival	-2355
▁Lee	-2356
attle	-2357
▁reve	-2358
▁wait	-2359
ett	-2360
▁free	-2361
▁Maybe	-2362
▁parents	-2363
▁premise	-2364
▁atmosphere	-2365
rific	-2366
▁upon	-2367
▁means	-2368
IL	-2369
▁Ben	-2370
▁stri	-2371
▁truth	-2372
▁throw	-2373
▁poorly	-2374
hic	-2375
kay	-2376
oor	-2377
esome	-2378
▁clim	-2379
▁America	-2380
▁attract	-2381
▁begins	-2382
▁writ	-2383
▁figure	-2384
▁average	-2385
king	-2386
▁using	-2387
▁appeal	-2388
▁brought	-2389
omin	-2390
▁filmed	-2391
oun	-2392
▁stun	-2393
▁norm	-2394
▁greatest	-2395
▁believable	-2396
▁...	-2397
▁wood	-2398
▁sequences	-2399
▁particular	-2400
▁*	-2401
▁har	-2402
▁large	-2403
▁stage	-2404
ges	-2405
▁chees	-2406
▁post	-2407
lfriend	-2408
▁Sm	-2409
verall	-2410
▁background	-2411
hood	-2412
'.	-2413
lier	-2414
▁grow	-2415
▁crime	-2416
▁Lu	-2417
ceed	-2418
▁Most	-2419
rey	-2420
▁Col	-2421
ising	-2422
bers	-2423
▁Jim	-2424
▁rese	-2425
▁French	-2426
▁Unfortunately	-2427
▁expected	-2428
ows	-2429
ring	-2430
▁basically	-2431
▁iss	-2432
▁obs	-2433
▁und	-2434
ially	-2435
▁strugg	-2436
▁business	-2437
▁199	-2438
▁pure	-2439
▁surv	-2440
▁city	-2441
My	-2442
▁bored	-2443
▁dumb	-2444
ye	-2445
▁sil	-2446
▁Mart	-2447
?"	-2448
lin	-2449
▁red	-2450
▁front	-2451
let	-2452
▁tast	-2453
▁introdu	-2454
▁mystery	-2455
▁Yes	-2456
▁utter	-2457
▁became	-2458
bert	-2459
orth	-2460
▁exec	-2461
▁Peter	-2462
▁Che	-2463
▁IMD	-2464
vent	-2465
▁rock	-2466
▁surprise	-2467
▁costum	-2468
▁whether	-2469
akes	-2470
▁design	-2471
bo	-2472
avy	-2473
ham	-2474
dden	-2475
▁write	-2476
▁killing	-2477
lor	-2478
▁Dr	-2479
▁Pr	-2480
ding	-2481
more	-2482
▁cur	-2483
▁Good	-2484
▁meaning	-2485
▁lots	-2486
iences	-2487
▁Frank	-2488
▁laughs	-2489
▁masterp	-2490
rated	-2491
▁realize	-2492
ged	-2493
▁bar	-2494
nding	-2495
▁shame	-2496
ES	-2497
▁Like	-2498
cers	-2499
▁enc	-2500
ills	-2501
▁los	-2502
▁ultim	-2503
▁id	-2504
ively	-2505
▁Scott	-2506
ann	-2507
▁Tw	-2508
EA	-2509
▁Its	-2510
▁soc	-2511
cious	-2512
▁forward	-2513
▁badly	-2514
uro	-2515
icks	-2516
▁needed	-2517
▁disturb	-2518
urther	-2519
rid	-2520
▁sens	-2521
ogn	-2522
rif	-2523
time	-2524
▁keeps	-2525
▁possibly	-2526
cted	-2527
set	-2528
ager	-2529
▁gone	-2530
▁admit	-2531
▁third	-2532
▁credits	-2533
▁interested	-2534
▁Ex	-2535
▁Tr	-2536
spect	-2537
▁male	-2538
▁ment	-2539
▁reading	-2540
▁situation	-2541
▁lim	-2542
▁leaves	-2543
▁cap	-2544
▁die	-2545
▁advent	-2546
▁sudden	-2547
▁villain	-2548
irc	-2549
▁public	-2550
▁Japanese	-2551
▁fra	-2552
▁apparently	-2553
▁Night	-2554
▁minute	-2555
▁Tim	-2556
▁From	-2557
▁copy	-2558
▁appro	-2559
urd	-2560
▁inte	-2561
▁dance	-2562
▁meant	-2563
▁unlike	-2564
▁girlfriend	-2565
hys	-2566
arch	-2567
▁emotion	-2568
▁screenplay	-2569
isf	-2570
belie	-2571
▁fasc	-2572
▁sick	-2573
▁catch	-2574
▁forced	-2575
▁nature	-2576
▁unique	-2577
▁memorable	-2578
fer	-2579
▁yes	-2580
▁imagine	-2581
▁somehow	-2582
▁development	-2583
▁Gu	-2584
▁er	-2585
▁stere	-2586
erry	-2587
▁ran	-2588
arring	-2589
▁anyway	-2590
▁creepy	-2591
lly	-2592
ula	-2593
▁Film	-2594
▁resp	-2595
▁older	-2596
▁Wood	-2597
▁footage	-2598
▁romance	-2599
▁directing	-2600
friend	-2601
▁earlier	-2602
▁band	-2603
▁cheesy	-2604
▁AN	-2605
▁mill	-2606
▁directors	-2607
▁:	-2608
chie	-2609
look	-2610
unny	-2611
▁liter	-2612
▁features	-2613
▁joke	-2614
▁clever	-2615
▁worked	-2616
▁concept	-2617
oe	-2618
ero	-2619
▁explo	-2620
▁meets	-2621
▁writers	-2622
▁agree	-2623
▁grand	-2624
▁sleep	-2625
cessary	-2626
▁cartoon	-2627
▁express	-2628
▁bel	-2629
▁dam	-2630
▁oper	-2631
▁profess	-2632
zz	-2633
▁nor	-2634
▁fails	-2635
▁incredibly	-2636
▁wind	-2637
▁please	-2638
▁emotional	-2639
An	-2640
onic	-2641
▁conne	-2642
▁Ph	-2643
well	-2644
iliar	-2645
udity	-2646
So	-2647
cked	-2648
▁Jul	-2649
▁flat	-2650
▁These	-2651
▁quickly	-2652
▁law	-2653
aking	-2654
▁project	-2655
▁Christmas	-2656
▁195	-2657
▁expecting	-2658
ele	-2659
ague	-2660
even	-2661
▁rob	-2662
▁IMDb	-2663
▁fire	-2664
ius	-2665
▁mad	-2666
▁brings	-2667
iny	-2668
oman	-2669
▁Tra	-2670
▁general	-2671
angu	-2672
arrass	-2673
▁popular	-2674
▁stereot	-2675
▁Ha	-2676
itty	-2677
ived	-2678
▁cry	-2679
▁total	-2680
▁potential	-2681
▁casting	-2682
▁positive	-2683
?)	-2684
udd	-2685
reed	-2686
▁Ser	-2687
▁dramatic	-2688
▁193	-2689
holog	-2690
▁plain	-2691
▁society	-2692
por	-2693
with	-2694
▁Mac	-2695
▁acted	-2696
▁perfectly	-2697
nel	-2698
▁Inst	-2699
▁deserves	-2700
▁embarrass	-2701
▁Ang	-2702
▁cover	-2703
▁plenty	-2704
All	-2705
eless	-2706
▁repe	-2707
kn	-2708
mist	-2709
▁/>"	-2710
▁talented	-2711
▁portrayed	-2712
hel	-2713
ries	-2714
▁avoid	-2715
▁create	-2716
ivers	-2717
▁leading	-2718
▁masterpiece	-2719
IS	-2720
su	-2721
▁30	-2722
ford	-2723
ashing	-2724
▁By	-2725
aked	-2726
iver	-2727
▁bare	-2728
▁occas	-2729
▁aut	-2730
▁imm	-2731
▁purp	-2732
▁amount	-2733
▁rich	-2734
▁reasons	-2735
aces	-2736
vered	-2737
▁Watch	-2738
▁prison	-2739
▁Des	-2740
wart	-2741
▁sweet	-2742
▁gay	-2743
▁innoc	-2744
▁spirit	-2745
▁Af	-2746
▁histor	-2747
▁invest	-2748
▁remake	-2749
▁powerful	-2750
▁eventually	-2751
ole	-2752
▁Com	-2753
venge	-2754
▁wasted	-2755
▁fairly	-2756
▁social	-2757
▁delight	-2758
af	-2759
▁nudity	-2760
een	-2761
val	-2762
iller	-2763
▁trad	-2764
▁whom	-2765
▁recogn	-2766
")	-2767
▁symp	-2768
▁space	-2769
action	-2770
▁beauty	-2771
▁sounds	-2772
▁towards	-2773
pper	-2774
ivid	-2775
over	-2776
▁desper	-2777
▁Fred	-2778
You	-2779
oof	-2780
▁missing	-2781
▁recently	-2782
▁extra	-2783
▁attempts	-2784
bit	-2785
ises	-2786
▁Euro	-2787
▁beha	-2788
▁Joe	-2789
▁sorry	-2790
▁unbelie	-2791
▁various	-2792
▁Em	-2793
▁neg	-2794
▁manages	-2795
irl	-2796
▁af	-2797
berg	-2798
asher	-2799
▁jour	-2800
▁revol	-2801
▁trail	-2802
▁hardly	-2803
▁fantasy	-2804
▁married	-2805
OO	-2806
cause	-2807
ips	-2808
andy	-2809
▁Gold	-2810
▁circ	-2811
▁cute	-2812
▁pace	-2813
▁vamp	-2814
ective	-2815
▁fighting	-2816
▁ign	-2817
▁ideas	-2818
▁indeed	-2819
▁missed	-2820
▁est	-2821
▁era	-2822
itted	-2823
▁note	-2824
▁commun	-2825
▁laughing	-2826
▁loo	-2827
▁lady	-2828
▁murd	-2829
▁step	-2830
▁cond	-2831
▁intri	-2832
gest	-2833
▁Here	-2834
▁accident	-2835
boy	-2836
▁dog	-2837
▁crew	-2838
▁members	-2839
▁telling	-2840
▁political	-2841
▁Bill	-2842
▁crazy	-2843
▁relig	-2844
min	-2845
▁funn	-2846
▁Other	-2847
writ	-2848
▁ess	-2849
inger	-2850
ened	-2851
idden	-2852
▁medi	-2853
▁phys	-2854
▁claim	-2855
▁langu	-2856
▁remark	-2857
▁color	-2858
▁wrote	-2859
▁familiar	-2860
ze	-2861
cent	-2862
uter	-2863
▁Chan	-2864
▁prop	-2865
▁battle	-2866
▁waiting	-2867
▁av	-2868
▁mel	-2869
ained	-2870
▁Black	-2871
▁spent	-2872
acing	-2873
▁Jane	-2874
▁caught	-2875
par	-2876
▁draw	-2877
iously	-2878
▁mentioned	-2879
aur	-2880
▁hy	-2881
come	-2882
iving	-2883
izing	-2884
▁achie	-2885
▁Italian	-2886
▁("	-2887
agon	-2888
▁ended	-2889
mon	-2890
olf	-2891
▁mid	-2892
▁Great	-2893
▁scient	-2894
vil	-2895
▁biz	-2896
ossible	-2897
▁15	-2898
▁Ale	-2899
▁hair	-2900
▁rate	-2901
lusion	-2902
▁Mad	-2903
▁Pro	-2904
▁aff	-2905
iff	-2906
ites	-2907
▁ble	-2908
▁idi	-2909
▁flash	-2910
▁solid	-2911
▁value	-2912
▁pointless	-2913
▁appreciate	-2914
bl	-2915
cher	-2916
▁Bar	-2917
▁inside	-2918
▁scream	-2919
▁filmmakers	-2920
▁Hor	-2921
▁answ	-2922
▁ident	-2923
▁record	-2924
▁decides	-2925
▁monster	-2926
▁convincing	-2927
▁intelligent	-2928
sen	-2929
uted	-2930
▁Van	-2931
▁further	-2932
▁hom	-2933
▁porn	-2934
▁requ	-2935
▁ghost	-2936
▁moves	-2937
▁choice	-2938
ask	-2939
acher	-2940
▁Mary	-2941
itation	-2942
▁common	-2943
elly	-2944
▁clos	-2945
▁depth	-2946
▁Europe	-2947
▁water	-2948
standing	-2949
▁slightly	-2950
VER	-2951
▁Big	-2952
▁World	-2953
▁amusing	-2954
▁outside	-2955
ette	-2956
▁bed	-2957
aine	-2958
lict	-2959
ieces	-2960
▁rece	-2961
ishing	-2962
▁credit	-2963
▁former	-2964
medi	-2965
▁spend	-2966
▁store	-2967
▁destro	-2968
▁laugha	-2969
▁portrayal	-2970
▁mod	-2971
▁whatever	-2972
▁incredible	-2973
▁jud	-2974
▁glad	-2975
▁forgot	-2976
▁reveal	-2977
cast	-2978
imp	-2979
men	-2980
rian	-2981
ral	-2982
this	-2983
▁Bat	-2984
ashion	-2985
▁kills	-2986
▁complex	-2987
ateur	-2988
▁accent	-2989
ED	-2990
rel	-2991
alth	-2992
▁boys	-2993
▁wall	-2994
▁created	-2995
alt	-2996
▁uses	-2997
▁exciting	-2998
▁unfortunately	-2999
ope	-3000
rage	-3001
▁Act	-3002
▁stat	-3003
▁compe	-3004
▁match	-3005
▁control	-3006
▁tension	-3007
ribly	-3008
▁rede	-3009
iers	-3010
▁stereotyp	-3011
emy	-3012
ased	-3013
ging	-3014
▁Pat	-3015
▁Red	-3016
▁week	-3017
▁stick	-3018
▁satisf	-3019
▁Instead	-3020
▁awesome	-3021
▁produced	-3022
OW	-3023
con	-3024
▁Star	-3025
▁luck	-3026
mistry	-3027
ibility	-3028
▁following	-3029
room	-3030
uine	-3031
▁Cra	-3032
aging	-3033
▁Stre	-3034
▁garb	-3035
▁offic	-3036
▁recent	-3037
▁biggest	-3038
▁concern	-3039
▁western	-3040
▁exception	-3041
How	-3042
erv	-3043
▁En	-3044
lying	-3045
▁dancing	-3046
gl	-3047
cle	-3048
▁196	-3049
▁Mon	-3050
▁rap	-3051
▁brain	-3052
▁impro	-3053
▁travel	-3054
▁successful	-3055
▁tort	-3056
▁showed	-3057
▁sees	-3058
▁earth	-3059
▁slasher	-3060
▁rad	-3061
▁jump	-3062
▁brief	-3063
▁subtle	-3064
▁follows	-3065
One	-3066
iced	-3067
▁Park	-3068
▁fascin	-3069
▁disturbing	-3070
▁situations	-3071
inary	-3072
▁breat	-3073
▁trash	-3074
▁entirely	-3075
gend	-3076
▁ine	-3077
▁magic	-3078
ilt	-3079
ored	-3080
resh	-3081
▁fit	-3082
while	-3083
▁brut	-3084
idered	-3085
▁bother	-3086
▁immedi	-3087
▁chemistry	-3088
▁effective	-3089
▁sum	-3090
▁wild	-3091
▁escape	-3092
▁trouble	-3093
▁books	-3094
lu	-3095
▁Cor	-3096
▁doctor	-3097
IT	-3098
aper	-3099
▁Bur	-3100
▁mass	-3101
▁Movie	-3102
▁amateur	-3103
▁bizarre	-3104
▁opportun	-3105
eg	-3106
vern	-3107
▁Rock	-3108
▁died	-3109
▁Afric	-3110
▁unless	-3111
▁zombie	-3112
PO	-3113
000	-3114
▁mer	-3115
▁crim	-3116
▁critic	-3117
▁impressive	-3118
OM	-3119
uthor	-3120
▁spot	-3121
▁unin	-3122
▁fol	-3123
une	-3124
ondon	-3125
▁Dead	-3126
▁Tony	-3127
▁soul	-3128
▁weren	-3129
▁bought	-3130
▁genuine	-3131
no	-3132
▁decide	-3133
▁redeem	-3134
▁Best	-3135
▁baby	-3136
▁failed	-3137
▁repres	-3138
▁compared	-3139
▁conclusion	-3140
rect	-3141
▁trip	-3142
▁taste	-3143
▁values	-3144
▁language	-3145
▁otherwise	-3146
▁Ham	-3147
▁filled	-3148
▁proper	-3149
▁pathetic	-3150
▁tough	-3151
▁studio	-3152
▁continu	-3153
▁garbage	-3154
▁revenge	-3155
▁considered	-3156
▁Let	-3157
sters	-3158
▁Smith	-3159
aven	-3160
▁suit	-3161
▁singing	-3162
▁violent	-3163
▁younger	-3164
▁House	-3165
▁focus	-3166
▁depict	-3167
▁questions	-3168
owers	-3169
▁humour	-3170
▁manner	-3171
▁progra	-3172
▁90	-3173
itary	-3174
▁barely	-3175
▁charming	-3176
▁stunning	-3177
bb	-3178
▁Stan	-3179
▁ball	-3180
▁favour	-3181
▁purpose	-3182
▁suspect	-3183
▁producers	-3184
ned	-3185
movie	-3186
▁compet	-3187
▁changed	-3188
▁college	-3189
▁Lou	-3190
▁fear	-3191
▁ground	-3192
fort	-3193
iles	-3194
▁fake	-3195
▁shooting	-3196
▁loud	-3197
ength	-3198
ener	-3199
ison	-3200
▁Way	-3201
known	-3202
▁longer	-3203
irty	-3204
▁rare	-3205
▁roll	-3206
▁impossible	-3207
ified	-3208
▁touch	-3209
ana	-3210
ottom	-3211
▁likes	-3212
▁pract	-3213
▁London	-3214
▁insult	-3215
Don	-3216
that	-3217
▁Russ	-3218
▁hang	-3219
▁carry	-3220
***	-3221
▁fat	-3222
▁Hall	-3223
▁danger	-3224
▁impression	-3225
ensive	-3226
▁II	-3227
▁Mel	-3228
ictor	-3229
chable	-3230
▁starring	-3231
fi	-3232
appe	-3233
lect	-3234
▁squ	-3235
▁beat	-3236
▁animated	-3237
▁computer	-3238
".<	-3239
erm	-3240
war	-3241
▁Wh	-3242
mark	-3243
plic	-3244
sequ	-3245
opher	-3246
▁arri	-3247
▁runs	-3248
▁product	-3249
▁Ro	-3250
ille	-3251
▁suc	-3252
iring	-3253
▁mood	-3254
▁heavy	-3255
▁neigh	-3256
ales	-3257
▁assum	-3258
▁audiences	-3259
rend	-3260
▁100	-3261
▁Boy	-3262
▁anti	-3263
▁contri	-3264
▁company	-3265
OV	-3266
ai	-3267
▁Dra	-3268
▁doll	-3269
▁track	-3270
ization	-3271
▁Perhaps	-3272
▁suddenly	-3273
aire	-3274
night	-3275
▁unex	-3276
▁party	-3277
▁state	-3278
▁culture	-3279
▁adventure	-3280
▁sci	-3281
▁City	-3282
▁obsess	-3283
▁terror	-3284
▁Love	-3285
▁bull	-3286
▁kick	-3287
▁appearance	-3288
▁office	-3289
▁regard	-3290
▁involving	-3291
har	-3292
▁194	-3293
▁uns	-3294
▁twists	-3295
▁unbelievable	-3296
▁gem	-3297
▁god	-3298
▁clot	-3299
▁refe	-3300
▁faith	-3301
▁author	-3302
▁genius	-3303
▁pu	-3304
▁natural	-3305
tt	-3306
ify	-3307
▁Ant	-3308
▁Mat	-3309
▁Mur	-3310
▁affect	-3311
▁ability	-3312
▁fashion	-3313
▁Lau	-3314
▁numb	-3315
▁pers	-3316
▁rand	-3317
▁sympat	-3318
izes	-3319
▁Hen	-3320
▁pack	-3321
lessly	-3322
▁basic	-3323
▁Indian	-3324
formation	-3325
▁terrific	-3326
▁Stewart	-3327
▁laughable	-3328
urch	-3329
▁Sure	-3330
▁spect	-3331
▁normal	-3332
▁succeed	-3333
▁ultimately	-3334
BC	-3335
LE	-3336
▁Ann	-3337
▁sitting	-3338
▁utterly	-3339
ki	-3340
uster	-3341
▁added	-3342
▁images	-3343
▁Another	-3344
▁leaving	-3345
▁neither	-3346
▁scenery	-3347
vey	-3348
yle	-3349
you	-3350
▁OF	-3351
iche	-3352
▁Bru	-3353
ressing	-3354
▁street	-3355
▁touching	-3356
AS	-3357
▁ST	-3358
▁def	-3359
▁lab	-3360
▁sexy	-3361
ailable	-3362
▁absurd	-3363
▁climax	-3364
▁indust	-3365
uts	-3366
rupt	-3367
▁cru	-3368
▁cold	-3369
ras	-3370
ILER	-3371
▁10.	-3372
▁dro	-3373
▁gag	-3374
▁grap	-3375
▁govern	-3376
▁serial	-3377
▁comedies	-3378
▁generally	-3379
▁adaptation	-3380
▁considering	-3381
▁Ye	-3382
▁Bel	-3383
iding	-3384
▁curi	-3385
▁terms	-3386
▁notice	-3387
▁complain	-3388
▁standard	-3389
▁somewhere	-3390
▁disappointing	-3391
ica	-3392
arily	-3393
house	-3394
▁cross	-3395
▁minor	-3396
▁random	-3397
▁thinks	-3398
▁managed	-3399
On	-3400
aus	-3401
▁test	-3402
▁mult	-3403
POILER	-3404
estival	-3405
▁issues	-3406
▁painful	-3407
▁recommended	-3408
▁Nic	-3409
▁Sch	-3410
▁sto	-3411
▁Very	-3412
▁road	-3413
▁Earth	-3414
▁occur	-3415
▁investig	-3416
▁immediately	-3417
For	-3418
▁pun	-3419
esides	-3420
unting	-3421
▁cause	-3422
▁charm	-3423
▁finish	-3424
▁disappointment	-3425
round	-3426
▁fresh	-3427
▁intrigu	-3428
iven	-3429
▁dig	-3430
riage	-3431
▁door	-3432
▁costumes	-3433
▁pictures	-3434
aly	-3435
▁Go	-3436
▁Sw	-3437
▁dad	-3438
▁Alex	-3439
▁boss	-3440
▁deliver	-3441
lyn	-3442
thur	-3443
vert	-3444
▁Super	-3445
▁train	-3446
▁People	-3447
▁likely	-3448
▁80'	-3449
▁smart	-3450
▁themes	-3451
▁Director	-3452
▁expectations	-3453
Th	-3454
gress	-3455
elling	-3456
▁month	-3457
▁nowhere	-3458
reg	-3459
ses	-3460
▁mistake	-3461
mat	-3462
making	-3463
▁makers	-3464
▁conflict	-3465
▁psycholog	-3466
stem	-3467
▁six	-3468
▁Adam	-3469
▁Sand	-3470
▁okay	-3471
▁Steve	-3472
▁fully	-3473
▁excuse	-3474
▁medioc	-3475
AD	-3476
ID	-3477
ribe	-3478
ropri	-3479
▁century	-3480
▁details	-3481
▁Den	-3482
▁Miss	-3483
▁Step	-3484
▁offe	-3485
oughly	-3486
▁respons	-3487
▁beautifully	-3488
pro	-3489
part	-3490
riff	-3491
▁emp	-3492
▁drive	-3493
▁offer	-3494
▁outstanding	-3495
▁photography	-3496
str	-3497
▁Still	-3498
▁Victor	-3499
▁hoping	-3500
▁presence	-3501
▁surprisingly	-3502
IE	-3503
anc	-3504
▁jo	-3505
chan	-3506
▁chall	-3507
▁lovely	-3508
sing	-3509
▁tradition	-3510
ena	-3511
ades	-3512
ached	-3513
▁Only	-3514
icated	-3515
played	-3516
▁suppose	-3517
awn	-3518
▁Tre	-3519
▁bomb	-3520
▁prep	-3521
▁filming	-3522
▁remains	-3523
▁witness	-3524
▁addition	-3525
▁repl	-3526
▁zombies	-3527
▁approach	-3528
▁shar	-3529
▁Chris	-3530
▁dreams	-3531
▁literally	-3532
anna	-3533
▁Bob	-3534
▁seg	-3535
idence	-3536
▁artist	-3537
▁animals	-3538
▁describ	-3539
▁interview	-3540
aton	-3541
▁Dou	-3542
rences	-3543
▁drawn	-3544
▁equally	-3545
▁feelings	-3546
▁constantly	-3547
▁Fl	-3548
▁Ray	-3549
▁****	-3550
▁High	-3551
▁Harry	-3552
▁alive	-3553
▁thrown	-3554
▁innocent	-3555
arl	-3556
▁Fin	-3557
▁date	-3558
▁defe	-3559
▁tone	-3560
▁force	-3561
▁names	-3562
▁commer	-3563
▁stands	-3564
▁boyfriend	-3565
TH	-3566
▁ur	-3567
face	-3568
▁Sci	-3569
▁flashback	-3570
▁presented	-3571
▁fascinating	-3572
yl	-3573
▁Bo	-3574
▁Fe	-3575
icide	-3576
▁Dick	-3577
▁Matt	-3578
▁drug	-3579
▁Where	-3580
▁tired	-3581
▁likable	-3582
▁science	-3583
▁contains	-3584
▁military	-3585
▁cinematic	-3586
orts	-3587
▁Jeff	-3588
▁knowing	-3589
▁Du	-3590
▁Ber	-3591
▁mach	-3592
▁plus	-3593
▁Allen	-3594
▁drunk	-3595
▁slowly	-3596
▁aspects	-3597
▁million	-3598
▁available	-3599
gust	-3600
▁Win	-3601
▁Hard	-3602
▁silent	-3603
▁system	-3604
▁Christian	-3605
▁mysterious	-3606
▁opportunity	-3607
He	-3608
lla	-3609
rad	-3610
▁80	-3611
just	-3612
▁din	-3613
oking	-3614
▁Than	-3615
▁escap	-3616
▁loves	-3617
▁soldiers	-3618
CH	-3619
▁Sat	-3620
budget	-3621
▁Angel	-3622
▁intern	-3623
▁intense	-3624
▁intended	-3625
ode	-3626
▁Ab	-3627
ares	-3628
▁ast	-3629
▁key	-3630
▁subst	-3631
▁threat	-3632
now	-3633
irth	-3634
▁ener	-3635
▁noir	-3636
▁soft	-3637
▁Charlie	-3638
▁emotions	-3639
▁happening	-3640
▁narrative	-3641
ini	-3642
▁psych	-3643
▁places	-3644
▁portra	-3645
▁laughed	-3646
▁compelling	-3647
▁leg	-3648
▁log	-3649
heart	-3650
▁Though	-3651
▁breath	-3652
▁individ	-3653
sed	-3654
uit	-3655
asty	-3656
▁mat	-3657
▁affair	-3658
▁teacher	-3659
▁trailer	-3660
▁protagon	-3661
▁Pal	-3662
▁puts	-3663
▁drink	-3664
kin	-3665
▁Paris	-3666
ability	-3667
orgeous	-3668
▁length	-3669
▁destroy	-3670
▁marriage	-3671
onna	-3672
▁Rog	-3673
ision	-3674
▁Jones	-3675
▁Young	-3676
▁loose	-3677
▁element	-3678
▁spl	-3679
▁edge	-3680
▁qual	-3681
illing	-3682
▁demon	-3683
▁Because	-3684
▁appeared	-3685
aff	-3686
▁CG	-3687
▁IS	-3688
ront	-3689
▁dies	-3690
▁journey	-3691
▁building	-3692
▁historical	-3693
gue	-3694
oph	-3695
anda	-3696
ploy	-3697
itude	-3698
▁magn	-3699
▁spec	-3700
istent	-3701
▁South	-3702
▁Story	-3703
▁Two	-3704
▁cas	-3705
elebr	-3706
▁mart	-3707
▁discuss	-3708
▁40	-3709
▁thor	-3710
▁lighting	-3711
▁government	-3712
mes	-3713
ples	-3714
▁Mus	-3715
table	-3716
urate	-3717
▁hasn	-3718
entially	-3719
▁changes	-3720
▁student	-3721
▁detective	-3722
▁50	-3723
what	-3724
▁Cal	-3725
▁Pol	-3726
▁Sec	-3727
▁lif	-3728
▁pil	-3729
orter	-3730
▁burn	-3731
▁Bruce	-3732
▁sight	-3733
▁walking	-3734
▁students	-3735
/2	-3736
Not	-3737
ands	-3738
▁Yet	-3739
▁clean	-3740
▁flicks	-3741
▁passion	-3742
▁mediocre	-3743
▁developed	-3744
▁photograp	-3745
▁commercial	-3746
▁relationships	-3747
▁Cat	-3748
▁dim	-3749
▁acts	-3750
▁lacks	-3751
▁numbers	-3752
▁surround	-3753
▁wondering	-3754
ancy	-3755
lled	-3756
under	-3757
▁dubb	-3758
▁ride	-3759
▁influ	-3760
▁rated	-3761
▁adults	-3762
▁pieces	-3763
▁critics	-3764
see	-3765
▁Ir	-3766
gged	-3767
tend	-3768
uous	-3769
▁joy	-3770
▁base	-3771
▁Bas	-3772
▁dread	-3773
▁melod	-3774
▁Batman	-3775
▁fright	-3776
▁Nothing	-3777
▁include	-3778
▁program	-3779
▁impressed	-3780
▁difference	-3781
IG	-3782
raid	-3783
▁Bad	-3784
▁Kelly	-3785
▁proves	-3786
▁remote	-3787
▁content	-3788
▁disgust	-3789
▁confusing	-3790
eal	-3791
exic	-3792
▁See	-3793
.....	-3794
field	-3795
kespe	-3796
▁Jean	-3797
▁gorgeous	-3798
▁negative	-3799
▁Christopher	-3800
wr	-3801
ken	-3802
wor	-3803
oned	-3804
▁Jes	-3805
▁Tar	-3806
▁Dark	-3807
▁init	-3808
▁Green	-3809
▁share	-3810
▁fellow	-3811
▁individual	-3812
▁warn	-3813
▁ahead	-3814
▁shall	-3815
▁motion	-3816
anic	-3817
down	-3818
dered	-3819
ledge	-3820
▁hosp	-3821
▁paid	-3822
▁Canad	-3823
▁behav	-3824
▁rented	-3825
▁confused	-3826
▁delivers	-3827
▁funniest	-3828
▁Mag	-3829
▁unne	-3830
▁Davis	-3831
▁Henry	-3832
▁mouth	-3833
▁current	-3834
▁victims	-3835
▁independ	-3836
▁Hit	-3837
▁rip	-3838
▁folks	-3839
▁steal	-3840
▁Charles	-3841
▁childhood	-3842
▁highlight	-3843
▁oh	-3844
anks	-3845
▁island	-3846
▁standards	-3847
?!	-3848
dow	-3849
ift	-3850
▁18	-3851
ology	-3852
▁West	-3853
▁serv	-3854
▁lover	-3855
▁thank	-3856
▁celebr	-3857
▁mainly	-3858
▁remain	-3859
▁formula	-3860
▁attractive	-3861
That	-3862
▁hig	-3863
▁unus	-3864
pected	-3865
▁contr	-3866
▁flaws	-3867
azz	-3868
ops	-3869
▁Ag	-3870
good	-3871
▁Hol	-3872
inese	-3873
ushed	-3874
itions	-3875
▁tragic	-3876
gly	-3877
▁Gl	-3878
rick	-3879
anted	-3880
▁hide	-3881
writer	-3882
▁Billy	-3883
▁helps	-3884
▁Lo	-3885
inct	-3886
text	-3887
▁Lad	-3888
asure	-3889
▁fault	-3890
▁irrit	-3891
▁legend	-3892
▁nobody	-3893
▁forever	-3894
▁reminded	-3895
▁ord	-3896
▁Show	-3897
▁naked	-3898
▁offers	-3899
▁falling	-3900
▁becoming	-3901
do	-3902
she	-3903
▁Nor	-3904
▁Thom	-3905
▁chase	-3906
▁lived	-3907
ilities	-3908
▁Overall	-3909
▁thoroughly	-3910
life	-3911
▁pra	-3912
ishes	-3913
▁Sant	-3914
▁twice	-3915
▁youth	-3916
▁actresses	-3917
▁forgotten	-3918
▁imagination	-3919
inn	-3920
bian	-3921
erous	-3922
▁cell	-3923
▁quiet	-3924
▁anymore	-3925
▁Shakespe	-3926
cra	-3927
roc	-3928
▁moral	-3929
▁stuck	-3930
▁Little	-3931
▁murders	-3932
.,	-3933
LY	-3934
When	-3935
oses	-3936
pret	-3937
▁host	-3938
▁wise	-3939
▁Steven	-3940
▁frustr	-3941
▁creative	-3942
Ch	-3943
ipp	-3944
irgin	-3945
▁Austr	-3946
▁Mexic	-3947
▁latter	-3948
▁Williams	-3949
▁disaster	-3950
▁honestly	-3951
▁provides	-3952
▁Co	-3953
▁du	-3954
▁Nat	-3955
▁multi	-3956
▁impact	-3957
▁hospital	-3958
▁industry	-3959
▁redeeming	-3960
▁Day	-3961
▁rout	-3962
herent	-3963
▁describe	-3964
▁Americans	-3965
We	-3966
▁12	-3967
ency	-3968
▁Lyn	-3969
▁nons	-3970
▁Martin	-3971
▁brothers	-3972
▁followed	-3973
azy	-3974
▁Ms	-3975
itor	-3976
▁Ram	-3977
▁den	-3978
board	-3979
▁Phil	-3980
▁prin	-3981
▁afraid	-3982
▁market	-3983
▁justice	-3984
▁gold	-3985
▁virt	-3986
▁Jerry	-3987
▁ready	-3988
omething	-3989
▁melodra	-3990
▁collection	-3991
Be	-3992
leep	-3993
▁70'	-3994
▁Carl	-3995
Overall	-3996
▁Arthur	-3997
▁object	-3998
▁central	-3999
▁correct	-4000
▁spectac	-4001
AY	-4002
itz	-4003
vol	-4004
eman	-4005
▁AND	-4006
▁freak	-4007
▁sadly	-4008
▁answer	-4009
▁wooden	-4010
Jo	-4011
▁Edd	-4012
▁slap	-4013
▁oppos	-4014
▁psycho	-4015
▁fiction	-4016
▁div	-4017
▁Part	-4018
▁adds	-4019
▁drag	-4020
▁surely	-4021
▁unreal	-4022
▁tragedy	-4023
AL	-4024
hor	-4025
▁fort	-4026
▁warm	-4027
▁knock	-4028
▁discover	-4029
ffe	-4030
oted	-4031
▁Spe	-4032
▁eat	-4033
aries	-4034
▁nasty	-4035
entious	-4036
▁merely	-4037
▁achieve	-4038
▁superior	-4039
▁unw	-4040
▁damn	-4041
▁alien	-4042
▁double	-4043
▁disappe	-4044
▁process	-4045
▁round	-4046
▁putting	-4047
IC	-4048
erk	-4049
iac	-4050
▁WW	-4051
▁Wal	-4052
▁rac	-4053
agger	-4054
ander	-4055
aylor	-4056
illed	-4057
▁summ	-4058
▁blind	-4059
▁eight	-4060
▁image	-4061
▁reach	-4062
▁producer	-4063
▁Shakespeare	-4064
ium	-4065
ste	-4066
▁ver	-4067
▁lose	-4068
▁prim	-4069
soever	-4070
▁bottom	-4071
entional	-4072
▁clothes	-4073
▁shouldn	-4074
▁turning	-4075
gar	-4076
film	-4077
hero	-4078
ivil	-4079
▁picked	-4080
▁Despite	-4081
▁comedic	-4082
▁underst	-4083
▁willing	-4084
ube	-4085
glas	-4086
▁Jon	-4087
▁Too	-4088
▁area	-4089
▁held	-4090
▁news	-4091
▁thin	-4092
▁wide	-4093
▁blond	-4094
▁member	-4095
▁location	-4096
▁everybody	-4097
▁professional	-4098
To	-4099
win	-4100
▁broad	-4101
▁mount	-4102
▁planet	-4103
▁Chinese	-4104
▁martial	-4105
▁comparis	-4106
▁apartment	-4107
▁whatsoever	-4108
ios	-4109
▁70	-4110
▁McC	-4111
▁gri	-4112
▁club	-4113
▁rubb	-4114
▁Robin	-4115
▁award	-4116
▁giant	-4117
▁opera	-4118
▁tears	-4119
▁Anyway	-4120
▁allowed	-4121
▁channel	-4122
▁station	-4123
▁filmmaker	-4124
/10.	-4125
hant	-4126
▁Cam	-4127
▁ham	-4128
aches	-4129
▁Many	-4130
▁Once	-4131
▁remem	-4132
▁vampire	-4133
▁occasion	-4134
▁faces	-4135
▁contem	-4136
▁scientist	-4137
▁information	-4138
▁personality	-4139
ka	-4140
▁aim	-4141
ovies	-4142
▁asks	-4143
▁buff	-4144
▁race	-4145
▁favourite	-4146
▁wonderfully	-4147
AM	-4148
Now	-4149
▁Fox	-4150
▁Alan	-4151
▁Mark	-4152
▁Walk	-4153
▁onto	-4154
▁soap	-4155
icious	-4156
▁moved	-4157
▁unexpected	-4158
ech	-4159
zan	-4160
▁ON	-4161
▁VH	-4162
▁ship	-4163
▁inspired	-4164
▁shocking	-4165
▁personally	-4166
▁aside	-4167
▁bright	-4168
▁depart	-4169
▁finding	-4170
▁deserved	-4171
▁pleasure	-4172
)<	-4173
Bl	-4174
Un	-4175
has	-4176
▁bi	-4177
▁Nick	-4178
▁drugs	-4179
▁resemb	-4180
▁Stephen	-4181
▁seconds	-4182
▁artistic	-4183
▁realized	-4184
▁technical	-4185
Well	-4186
▁rape	-4187
▁trust	-4188
▁brutal	-4189
▁desert	-4190
▁convers	-4191
▁distract	-4192
▁repeated	-4193
▁commentary	-4194
abl	-4195
arry	-4196
▁Dam	-4197
edding	-4198
▁Their	-4199
pective	-4200
▁energy	-4201
▁insight	-4202
▁relative	-4203
▁friendship	-4204
ita	-4205
rog	-4206
ateg	-4207
ifer	-4208
year	-4209
▁resc	-4210
▁Never	-4211
▁accom	-4212
▁thanks	-4213
▁Douglas	-4214
▁intelligence	-4215
mi	-4216
▁Ry	-4217
▁na	-4218
otes	-4219
▁Barb	-4220
▁block	-4221
▁holes	-4222
▁deeply	-4223
▁helped	-4224
▁scared	-4225
▁struggle	-4226
ta	-4227
▁tar	-4228
ademy	-4229
▁bank	-4230
▁angry	-4231
▁Taylor	-4232
▁listen	-4233
▁mental	-4234
▁includes	-4235
▁physical	-4236
▁Ol	-4237
wolf	-4238
▁Both	-4239
▁explan	-4240
▁compare	-4241
▁finished	-4242
▁watchable	-4243
uman	-4244
▁More	-4245
▁pair	-4246
Americ	-4247
▁began	-4248
ropriate	-4249
▁suicide	-4250
▁seemingly	-4251
hi	-4252
abr	-4253
sey	-4254
ousy	-4255
▁bits	-4256
▁epic	-4257
▁kidn	-4258
▁worthy	-4259
▁possess	-4260
▁neighbor	-4261
▁necessary	-4262
▁unnecessary	-4263
mo	-4264
abb	-4265
▁Did	-4266
▁Sad	-4267
▁doz	-4268
▁led	-4269
urally	-4270
▁Hitler	-4271
▁memory	-4272
▁streng	-4273
▁deserve	-4274
especially	-4275
▁sentiment	-4276
▁remarkable	-4277
UT	-4278
▁Ac	-4279
vate	-4280
▁crow	-4281
▁anywhere	-4282
ET	-4283
ek	-4284
ids	-4285
▁Jr	-4286
▁WH	-4287
▁ge	-4288
uddy	-4289
ament	-4290
kward	-4291
▁hook	-4292
▁nomin	-4293
▁Please	-4294
▁encoun	-4295
▁unusual	-4296
▁supposedly	-4297
aud	-4298
requ	-4299
▁Bak	-4300
▁debut	-4301
▁accurate	-4302
▁intriguing	-4303
TV	-4304
ugs	-4305
▁Cr	-4306
mare	-4307
▁pen	-4308
▁ted	-4309
alled	-4310
▁tend	-4311
▁ugly	-4312
▁agent	-4313
▁thats	-4314
▁Columb	-4315
▁Horror	-4316
▁loving	-4317
▁surprising	-4318
De	-4319
ano	-4320
▁Er	-4321
▁cal	-4322
▁deg	-4323
apped	-4324
rance	-4325
▁food	-4326
▁grat	-4327
▁dying	-4328
▁Morgan	-4329
▁perform	-4330
▁teenage	-4331
▁engaging	-4332
abe	-4333
acy	-4334
▁IN	-4335
mbol	-4336
▁Sil	-4337
▁Wil	-4338
▁Ford	-4339
▁arts	-4340
▁skin	-4341
▁pacing	-4342
▁awkward	-4343
▁torture	-4344
▁independent	-4345
plot	-4346
▁Rus	-4347
▁Sar	-4348
terest	-4349
▁Blood	-4350
▁Eddie	-4351
▁Lynch	-4352
▁bland	-4353
▁elect	-4354
▁scare	-4355
▁vision	-4356
▁actions	-4357
▁wearing	-4358
▁11	-4359
ario	-4360
▁Pac	-4361
▁hint	-4362
▁mild	-4363
ording	-4364
▁aware	-4365
▁Keaton	-4366
▁employ	-4367
▁Russian	-4368
AC	-4369
Any	-4370
lev	-4371
Some	-4372
enge	-4373
esty	-4374
▁App	-4375
▁Sus	-4376
▁amb	-4377
bered	-4378
▁Life	-4379
▁suck	-4380
▁motiv	-4381
▁Brother	-4382
asts	-4383
rors	-4384
▁VHS	-4385
▁Brian	-4386
▁pilot	-4387
▁gotten	-4388
▁players	-4389
▁provide	-4390
▁reminds	-4391
▁continue	-4392
▁speaking	-4393
SE	-4394
Sc	-4395
▁Es	-4396
▁Li	-4397
▁Sl	-4398
ipul	-4399
rous	-4400
▁Sin	-4401
▁ing	-4402
oring	-4403
▁wond	-4404
▁relie	-4405
▁winning	-4406
▁magnific	-4407
▁desperate	-4408
▁DO	-4409
ache	-4410
illa	-4411
▁Joan	-4412
▁sell	-4413
▁White	-4414
▁react	-4415
▁smile	-4416
▁stink	-4417
▁visit	-4418
▁prefer	-4419
▁wanting	-4420
hod	-4421
▁bal	-4422
holic	-4423
odies	-4424
urity	-4425
▁sour	-4426
undred	-4427
▁accompl	-4428
▁rubbish	-4429
▁religious	-4430
.'	-4431
bur	-4432
yes	-4433
ilst	-4434
▁CGI	-4435
▁Les	-4436
▁thus	-4437
▁phone	-4438
rifying	-4439
va	-4440
▁?	-4441
▁la	-4442
omen	-4443
tain	-4444
teen	-4445
▁Was	-4446
cient	-4447
unted	-4448
▁Jason	-4449
▁chick	-4450
▁hopes	-4451
▁anybody	-4452
▁memories	-4453
▁introduced	-4454
olds	-4455
▁bene	-4456
▁empt	-4457
▁lets	-4458
▁chore	-4459
▁hated	-4460
▁vehic	-4461
director	-4462
▁deb	-4463
owell	-4464
rical	-4465
▁Kate	-4466
▁horse	-4467
▁hotel	-4468
▁stret	-4469
▁woods	-4470
▁Having	-4471
▁rarely	-4472
▁regret	-4473
▁account	-4474
▁unknown	-4475
▁creature	-4476
imal	-4477
▁nat	-4478
ooper	-4479
▁crowd	-4480
▁holds	-4481
▁media	-4482
▁search	-4483
▁target	-4484
▁criminal	-4485
▁strength	-4486
▁knowledge	-4487
▁Everything	-4488
▁delightful	-4489
:<	-4490
At	-4491
No	-4492
▁mut	-4493
▁tem	-4494
hered	-4495
▁Andy	-4496
▁mine	-4497
▁weap	-4498
▁blame	-4499
▁Street	-4500
▁Jackson	-4501
▁limited	-4502
▁pretentious	-4503
▁13	-4504
eper	-4505
▁Law	-4506
▁lay	-4507
▁tur	-4508
▁Jose	-4509
▁enth	-4510
▁hurt	-4511
▁load	-4512
▁loss	-4513
▁birth	-4514
▁capture	-4515
rs	-4516
bad	-4517
nie	-4518
ewis	-4519
▁cow	-4520
▁pet	-4521
anish	-4522
▁categ	-4523
▁separ	-4524
▁belief	-4525
-1	-4526
lock	-4527
oons	-4528
othy	-4529
reck	-4530
▁Hel	-4531
▁env	-4532
owing	-4533
▁Lind	-4534
▁asked	-4535
▁board	-4536
▁cable	-4537
▁craft	-4538
entions	-4539
looking	-4540
▁hundred	-4541
esh	-4542
ogy	-4543
oks	-4544
▁Del	-4545
▁Fre	-4546
▁ris	-4547
ounds	-4548
▁Danny	-4549
▁games	-4550
▁player	-4551
▁symbol	-4552
▁England	-4553
▁progress	-4554
▁explained	-4555
uct	-4556
▁Te	-4557
ores	-4558
▁Ron	-4559
ators	-4560
▁cops	-4561
▁tour	-4562
▁Since	-4563
▁mixed	-4564
▁uncon	-4565
▁church	-4566
▁transl	-4567
▁talents	-4568
▁signific	-4569
▁terribly	-4570
ean	-4571
,000	-4572
▁Jud	-4573
▁Str	-4574
▁Ter	-4575
ourne	-4576
▁guns	-4577
▁explos	-4578
▁flying	-4579
▁skills	-4580
▁noticed	-4581
▁treated	-4582
▁Everyone	-4583
▁responsible	-4584
yer	-4585
▁rul	-4586
entle	-4587
pless	-4588
ummer	-4589
▁cars	-4590
▁hadn	-4591
▁constant	-4592
▁reviewers	-4593
Oh	-4594
▁Sy	-4595
miss	-4596
star	-4597
▁hyp	-4598
▁coun	-4599
father	-4600
▁Andrew	-4601
▁Daniel	-4602
▁belong	-4603
▁bloody	-4604
▁charis	-4605
▁lovers	-4606
▁manage	-4607
ashington	-4608
gn	-4609
."<	-4610
iro	-4611
▁Jew	-4612
▁sac	-4613
thony	-4614
▁Mike	-4615
▁gags	-4616
▁impl	-4617
▁phil	-4618
orious	-4619
▁aband	-4620
▁dated	-4621
▁kinda	-4622
▁sucks	-4623
However	-4624
▁nicely	-4625
fortable	-4626
▁partner	-4627
▁creating	-4628
▁concerned	-4629
des	-4630
irk	-4631
▁Moo	-4632
▁REA	-4633
tered	-4634
▁born	-4635
▁Space	-4636
▁owner	-4637
▁pulled	-4638
▁heroine	-4639
▁unfunny	-4640
cho	-4641
stal	-4642
xual	-4643
▁Ros	-4644
▁hits	-4645
▁Kevin	-4646
▁heads	-4647
natural	-4648
ruction	-4649
▁finest	-4650
▁hidden	-4651
▁months	-4652
ensional	-4653
▁growing	-4654
▁instance	-4655
oop	-4656
sec	-4657
▁60	-4658
atory	-4659
stein	-4660
▁text	-4661
▁thous	-4662
▁advice	-4663
▁fights	-4664
▁twenty	-4665
▁results	-4666
▁understanding	-4667
aa	-4668
isc	-4669
away	-4670
soci	-4671
▁Roy	-4672
▁Ver	-4673
arded	-4674
icked	-4675
▁East	-4676
▁Girl	-4677
▁army	-4678
▁lies	-4679
▁floor	-4680
▁plane	-4681
▁troub	-4682
▁witch	-4683
aps	-4684
hern	-4685
iful	-4686
▁ner	-4687
iance	-4688
▁Eric	-4689
▁below	-4690
▁dealing	-4691
▁community	-4692
▁perspective	-4693
!).	-4694
eed	-4695
abor	-4696
sion	-4697
▁Gar	-4698
▁bur	-4699
▁mob	-4700
there	-4701
ulous	-4702
▁Death	-4703
▁Jesus	-4704
▁uncle	-4705
▁Johnny	-4706
▁circum	-4707
▁humans	-4708
although	-4709
▁humorous	-4710
▁locations	-4711
▁explanation	-4712
Sp	-4713
dra	-4714
cock	-4715
▁Bet	-4716
anced	-4717
cture	-4718
ilies	-4719
osaur	-4720
point	-4721
▁Stone	-4722
▁Those	-4723
▁stock	-4724
▁imagin	-4725
▁sucked	-4726
▁lacking	-4727
▁returns	-4728
▁Washington	-4729
port	-4730
▁der	-4731
While	-4732
iling	-4733
▁Hart	-4734
▁Pres	-4735
▁fool	-4736
screen	-4737
▁Simon	-4738
▁desire	-4739
▁priest	-4740
▁Western	-4741
▁context	-4742
▁humanity	-4743
▁opposite	-4744
John	-4745
mble	-4746
▁opt	-4747
break	-4748
unter	-4749
▁Leon	-4750
▁Broad	-4751
▁deals	-4752
▁issue	-4753
▁naive	-4754
▁radio	-4755
▁tight	-4756
▁theatre	-4757
▁murdered	-4758
▁starting	-4759
het	-4760
ulf	-4761
▁Sho	-4762
ribut	-4763
▁Coll	-4764
▁Rain	-4765
▁field	-4766
▁witty	-4767
▁keeping	-4768
▁villains	-4769
);	-4770
Also	-4771
etic	-4772
iron	-4773
sell	-4774
▁bat	-4775
▁sed	-4776
itter	-4777
▁earn	-4778
▁grew	-4779
▁safe	-4780
▁breaks	-4781
▁insane	-4782
▁satire	-4783
▁behavior	-4784
▁nonsense	-4785
ILL	-4786
irm	-4787
▁ic	-4788
hold	-4789
they	-4790
▁Naz	-4791
▁boo	-4792
agers	-4793
▁Jess	-4794
▁THIS	-4795
▁educ	-4796
▁expert	-4797
▁summer	-4798
▁included	-4799
▁interpret	-4800
▁comparison	-4801
▁Sund	-4802
▁frame	-4803
▁unint	-4804
ennifer	-4805
▁animal	-4806
▁assist	-4807
American	-4808
▁efforts	-4809
▁proceed	-4810
▁reaction	-4811
▁psychological	-4812
???	-4813
ked	-4814
oom	-4815
▁Ap	-4816
ueen	-4817
umps	-4818
▁Sid	-4819
▁ban	-4820
ivity	-4821
▁EVER	-4822
▁Lady	-4823
▁junk	-4824
▁loses	-4825
▁saved	-4826
▁bigger	-4827
▁European	-4828
▁gangster	-4829
ban	-4830
upp	-4831
▁dry	-4832
▁gru	-4833
▁Cass	-4834
▁card	-4835
▁goof	-4836
▁cameo	-4837
▁shallow	-4838
▁dangerous	-4839
▁represent	-4840
▁originally	-4841
▁remembered	-4842
rem	-4843
▁Kar	-4844
▁sal	-4845
▁van	-4846
usive	-4847
▁desp	-4848
▁corny	-4849
▁empty	-4850
▁resol	-4851
hearted	-4852
▁determ	-4853
▁wealth	-4854
ometimes	-4855
▁manipul	-4856
▁surreal	-4857
▁circumst	-4858
▁received	-4859
ser	-4860
▁Dor	-4861
▁Mal	-4862
ordon	-4863
▁Albert	-4864
▁ladies	-4865
▁survive	-4866
▁intellect	-4867
They	-4868
cise	-4869
▁Men	-4870
▁les	-4871
▁Hell	-4872
uitous	-4873
▁plots	-4874
▁types	-4875
finitely	-4876
▁learned	-4877
▁discovered	-4878
tw	-4879
uk	-4880
amb	-4881
tle	-4882
atra	-4883
than	-4884
▁pit	-4885
▁fate	-4886
luding	-4887
▁Santa	-4888
▁court	-4889
▁Harris	-4890
▁incomp	-4891
▁toward	-4892
▁corrupt	-4893
▁curious	-4894
▁continues	-4895
don	-4896
some	-4897
▁YOU	-4898
▁sin	-4899
ville	-4900
▁frequ	-4901
▁gonna	-4902
▁prove	-4903
▁uncom	-4904
POILERS	-4905
arently	-4906
▁crappy	-4907
▁overly	-4908
........	-4909
▁African	-4910
▁regular	-4911
▁somebody	-4912
lle	-4913
aint	-4914
▁Kong	-4915
▁Look	-4916
▁park	-4917
▁path	-4918
iverse	-4919
▁Which	-4920
▁model	-4921
▁seven	-4922
▁finale	-4923
▁princi	-4924
▁recall	-4925
▁refres	-4926
▁driving	-4927
▁visuals	-4928
▁numerous	-4929
▁/>-	-4930
▁Luc	-4931
▁bot	-4932
arner	-4933
▁Lord	-4934
▁hall	-4935
▁frank	-4936
▁marry	-4937
▁miser	-4938
▁study	-4939
▁higher	-4940
▁parody	-4941
▁philos	-4942
▁captured	-4943
▁versions	-4944
▁entertained	-4945
ss	-4946
rix	-4947
Even	-4948
▁Kim	-4949
▁Beat	-4950
▁Gene	-4951
▁site	-4952
▁tack	-4953
ushing	-4954
▁grown	-4955
▁print	-4956
▁Spanish	-4957
▁soldier	-4958
▁contrast	-4959
▁featuring	-4960
.5	-4961
nox	-4962
oes	-4963
ued	-4964
uel	-4965
▁14	-4966
▁Im	-4967
hent	-4968
oken	-4969
ugos	-4970
First	-4971
▁cuts	-4972
▁gory	-4973
▁inex	-4974
▁Moore	-4975
▁organ	-4976
▁Before	-4977
▁lesson	-4978
▁subtit	-4979
▁theaters	-4980
▁therefore	-4981
▁irritating	-4982
rie	-4983
ups	-4984
▁ju	-4985
done	-4986
enny	-4987
ruct	-4988
▁/>1	-4989
▁Gary	-4990
▁Sean	-4991
▁sword	-4992
▁advert	-4993
▁decade	-4994
▁heroes	-4995
▁Anthony	-4996
▁experien	-4997
▁families	-4998
▁amateurish	-4999
▁brilliantly	-5000
▁magnificent	-5001
za	-5002
acc	-5003
mar	-5004
vit	-5005
▁IT	-5006
ading	-5007
iforn	-5008
▁bear	-5009
▁reun	-5010
▁sake	-5011
▁passed	-5012
▁powers	-5013
▁morning	-5014
▁stopped	-5015
asm	-5016
bra	-5017
idge	-5018
▁tun	-5019
acting	-5020
▁Hitch	-5021
▁calls	-5022
▁green	-5023
▁gross	-5024
▁speed	-5025
▁spoof	-5026
▁machine	-5027
▁realism	-5028
▁dreadful	-5029
▁painfully	-5030
▁gratuitous	-5031
▁references	-5032
▁spectacular	-5033
law	-5034
▁Had	-5035
▁vul	-5036
aving	-5037
liver	-5038
stick	-5039
▁bath	-5040
▁Freddy	-5041
▁challeng	-5042
▁majority	-5043
▁underrated	-5044
lim	-5045
bell	-5046
▁Jan	-5047
▁Rom	-5048
▁Cage	-5049
indere	-5050
ivered	-5051
▁Jimmy	-5052
▁grace	-5053
▁consist	-5054
▁officer	-5055
▁warning	-5056
▁ordinary	-5057
▁contrived	-5058
▁existence	-5059
▁screaming	-5060
▁traditional	-5061
LLY	-5062
spe	-5063
top	-5064
ums	-5065
▁(2	-5066
aybe	-5067
▁Tex	-5068
▁net	-5069
▁Okay	-5070
▁tape	-5071
▁incre	-5072
▁edited	-5073
▁proved	-5074
▁relief	-5075
▁foreign	-5076
▁executed	-5077
▁laughter	-5078
▁refreshing	-5079
RI	-5080
ker	-5081
phy	-5082
uns	-5083
ails	-5084
ques	-5085
▁Int	-5086
▁Wow	-5087
▁Long	-5088
▁Thank	-5089
▁costs	-5090
▁display	-5091
▁excited	-5092
▁wedding	-5093
▁reviewer	-5094
entionally	-5095
▁appealing	-5096
▁experiment	-5097
OL	-5098
fit	-5099
Then	-5100
kend	-5101
▁Par	-5102
▁fif	-5103
▁Trek	-5104
▁Wayne	-5105
▁sheer	-5106
ifornia	-5107
▁singer	-5108
▁environ	-5109
inderella	-5110
teresting	-5111
▁stereotypes	-5112
▁embarrassing	-5113
▁Rod	-5114
▁Val	-5115
▁obl	-5116
▁Capt	-5117
▁Time	-5118
▁shop	-5119
porary	-5120
ication	-5121
iration	-5122
theless	-5123
▁Academy	-5124
▁connect	-5125
▁creates	-5126
▁pleasant	-5127
▁discovers	-5128
▁connection	-5129
▁protagonist	-5130
iat	-5131
yal	-5132
▁Mi	-5133
▁ens	-5134
cking	-5135
▁Wild	-5136
▁cash	-5137
▁fict	-5138
hentic	-5139
mother	-5140
▁teach	-5141
▁Howard	-5142
▁Really	-5143
▁Univers	-5144
▁seasons	-5145
▁revolution	-5146
▁Hal	-5147
▁Haw	-5148
▁Kenn	-5149
▁ages	-5150
▁blue	-5151
▁trib	-5152
stream	-5153
▁civil	-5154
▁paper	-5155
▁screw	-5156
▁Parker	-5157
▁associ	-5158
▁unable	-5159
▁confront	-5160
▁involves	-5161
▁portrays	-5162
▁revealed	-5163
▁delivered	-5164
ja	-5165
▁fle	-5166
▁tor	-5167
amily	-5168
ashed	-5169
ether	-5170
▁tick	-5171
▁press	-5172
▁Joseph	-5173
▁Master	-5174
▁Thomas	-5175
▁assume	-5176
▁forces	-5177
▁failure	-5178
▁vehicle	-5179
▁Broadway	-5180
▁ultimate	-5181
▁genuinely	-5182
Of	-5183
osh	-5184
erie	-5185
ilty	-5186
▁Out	-5187
oting	-5188
urday	-5189
▁scar	-5190
histic	-5191
▁Brown	-5192
▁Gordon	-5193
▁leader	-5194
▁marvel	-5195
▁ruined	-5196
isa	-5197
▁hur	-5198
icate	-5199
▁appl	-5200
▁obsc	-5201
▁redu	-5202
▁built	-5203
▁cruel	-5204
▁proud	-5205
▁caused	-5206
▁convey	-5207
▁emotionally	-5208
She	-5209
▁sch	-5210
oster	-5211
oween	-5212
▁cant	-5213
▁Asian	-5214
▁Franc	-5215
▁opens	-5216
▁skill	-5217
▁veter	-5218
▁purcha	-5219
▁relate	-5220
▁window	-5221
▁produce	-5222
▁substance	-5223
▁combination	-5224
With	-5225
inis	-5226
stit	-5227
▁Pre	-5228
▁arm	-5229
▁fal	-5230
▁gas	-5231
▁lat	-5232
▁syn	-5233
▁Rose	-5234
▁king	-5235
▁inept	-5236
telling	-5237
▁compan	-5238
▁levels	-5239
▁described	-5240
oh	-5241
uh	-5242
▁Hay	-5243
▁sun	-5244
ients	-5245
▁Cent	-5246
▁Moon	-5247
▁Ryan	-5248
▁Cinem	-5249
▁dress	-5250
▁judge	-5251
▁Barbara	-5252
▁contain	-5253
▁mission	-5254
▁normally	-5255
▁disgusting	-5256
▁portraying	-5257
arc	-5258
dom	-5259
udic	-5260
▁vac	-5261
orthy	-5262
▁Bond	-5263
▁lone	-5264
▁lousy	-5265
ulation	-5266
▁France	-5267
▁Tarzan	-5268
▁asleep	-5269
▁colour	-5270
▁capable	-5271
▁handsome	-5272
▁depressing	-5273
▁flashbacks	-5274
▁unrealistic	-5275
II	-5276
ba	-5277
ped	-5278
After	-5279
▁Luke	-5280
▁disp	-5281
▁ende	-5282
▁ring	-5283
▁vote	-5284
▁Woody	-5285
▁logic	-5286
▁peace	-5287
▁altern	-5288
▁speech	-5289
▁whilst	-5290
▁graphic	-5291
▁religion	-5292
▁technology	-5293
Rob	-5294
nam	-5295
▁ALL	-5296
▁pal	-5297
▁wel	-5298
▁spin	-5299
▁zero	-5300
▁cares	-5301
▁blonde	-5302
▁choose	-5303
▁protect	-5304
▁sequels	-5305
▁tedious	-5306
▁village	-5307
▁Hitchcock	-5308
▁treatment	-5309
▁25	-5310
▁TO	-5311
whel	-5312
▁VER	-5313
▁Brad	-5314
▁Mars	-5315
▁bond	-5316
▁kiss	-5317
▁sear	-5318
▁yeah	-5319
angers	-5320
▁Lewis	-5321
▁rental	-5322
▁reflect	-5323
▁Jennifer	-5324
▁sympathetic	-5325
bly	-5326
▁da	-5327
ault	-5328
roll	-5329
▁cyn	-5330
abeth	-5331
▁Anne	-5332
▁mini	-5333
▁seat	-5334
▁send	-5335
reedom	-5336
unning	-5337
▁Jackie	-5338
▁erotic	-5339
▁segment	-5340
▁attitude	-5341
▁research	-5342
▁expression	-5343
▁satisfying	-5344
▁essentially	-5345
▁occasionally	-5346
▁circumstances	-5347
EL	-5348
fl	-5349
ya	-5350
zo	-5351
---	-5352
usi	-5353
core	-5354
▁MOV	-5355
▁Full	-5356
▁Mont	-5357
▁THAT	-5358
▁Viet	-5359
▁feet	-5360
▁Louis	-5361
▁Marie	-5362
▁Thing	-5363
▁excit	-5364
▁Murphy	-5365
▁Second	-5366
▁ancient	-5367
▁endless	-5368
▁hearing	-5369
▁identity	-5370
▁unfortun	-5371
▁authentic	-5372
▁practically	-5373
Pl	-5374
agh	-5375
nal	-5376
▁UK	-5377
outs	-5378
urns	-5379
▁Care	-5380
▁fits	-5381
▁fund	-5382
▁range	-5383
▁stalk	-5384
▁Prince	-5385
▁asking	-5386
▁believes	-5387
▁captures	-5388
▁horribly	-5389
▁qualities	-5390
ga	-5391
ls	-5392
ugg	-5393
aken	-5394
ynam	-5395
▁Plus	-5396
▁emer	-5397
buster	-5398
▁grade	-5399
▁lucky	-5400
▁dubbed	-5401
▁learns	-5402
▁sports	-5403
▁Russell	-5404
▁costume	-5405
▁Anderson	-5406
▁generation	-5407
uther	-5408
▁Wars	-5409
▁boat	-5410
▁clue	-5411
▁fare	-5412
▁vide	-5413
levant	-5414
▁Miche	-5415
▁harsh	-5416
▁involve	-5417
▁convinced	-5418
▁suffering	-5419
▁environment	-5420
ndo	-5421
iser	-5422
long	-5423
ners	-5424
omed	-5425
ooth	-5426
rate	-5427
▁Ell	-5428
▁Mod	-5429
▁hol	-5430
class	-5431
▁Last	-5432
▁pile	-5433
▁sole	-5434
▁conce	-5435
▁allows	-5436
▁saving	-5437
▁sitcom	-5438
▁steals	-5439
▁meeting	-5440
▁promise	-5441
▁routine	-5442
▁decision	-5443
▁strongly	-5444
▁unlikely	-5445
▁visually	-5446
▁appropriate	-5447
▁exploitation	-5448
ama	-5449
hand	-5450
made	-5451
mind	-5452
▁Whe	-5453
▁vol	-5454
ights	-5455
▁Cast	-5456
▁alco	-5457
▁punch	-5458
▁Anyone	-5459
▁chosen	-5460
▁eating	-5461
▁Germany	-5462
▁dressed	-5463
▁murdere	-5464
▁monsters	-5465
▁teenager	-5466
▁whenever	-5467
RA	-5468
▁La	-5469
ella	-5470
elle	-5471
walk	-5472
▁Cle	-5473
▁Hill	-5474
▁fame	-5475
▁neat	-5476
▁pity	-5477
▁inner	-5478
▁Welles	-5479
▁propag	-5480
▁cartoons	-5481
▁nominated	-5482
upt	-5483
▁SH	-5484
▁Mrs	-5485
▁Wat	-5486
arian	-5487
produ	-5488
orting	-5489
▁Clark	-5490
▁ludic	-5491
▁rival	-5492
▁necess	-5493
▁accents	-5494
▁Canadian	-5495
▁standing	-5496
▁excitement	-5497
▁unfortunate	-5498
vy	-5499
▁Max	-5500
▁San	-5501
achel	-5502
aling	-5503
▁Pitt	-5504
▁Anton	-5505
▁anime	-5506
▁Africa	-5507
▁Pacino	-5508
▁hyster	-5509
▁voices	-5510
▁Superman	-5511
UN	-5512
▁Up	-5513
beat	-5514
cies	-5515
pass	-5516
▁Get	-5517
▁Mer	-5518
▁Bran	-5519
▁Gill	-5520
▁quir	-5521
▁Barry	-5522
▁Nancy	-5523
▁sharp	-5524
▁vague	-5525
▁center	-5526
▁establ	-5527
▁Watching	-5528
▁category	-5529
Re	-5530
cul	-5531
▁NO	-5532
anity	-5533
ombie	-5534
▁Over	-5535
▁Sadly	-5536
▁spell	-5537
▁Wilson	-5538
▁angles	-5539
▁suffers	-5540
▁Festival	-5541
▁experiences	-5542
Ste	-5543
nan	-5544
pet	-5545
▁LA	-5546
▁gig	-5547
anged	-5548
ennis	-5549
ilogy	-5550
▁1950	-5551
▁atro	-5552
▁ruin	-5553
▁flesh	-5554
▁lower	-5555
▁weeks	-5556
▁broken	-5557
▁heaven	-5558
▁viewed	-5559
▁largely	-5560
▁reminis	-5561
▁baseball	-5562
▁depicted	-5563
▁festival	-5564
▁training	-5565
▁surprises	-5566
▁teenagers	-5567
▁struggling	-5568
3.	-5569
GM	-5570
VE	-5571
Why	-5572
▁Sn	-5573
▁di	-5574
aded	-5575
olph	-5576
ummy	-5577
▁Sur	-5578
▁1980	-5579
▁skip	-5580
▁talks	-5581
▁partic	-5582
▁speaks	-5583
▁Columbo	-5584
▁matters	-5585
▁shocked	-5586
▁believed	-5587
▁obsessed	-5588
▁thoughts	-5589
▁offensive	-5590
▁promising	-5591
▁uninteresting	-5592
▁)	-5593
ada	-5594
nda	-5595
▁Ho	-5596
cker	-5597
▁Ash	-5598
▁Cas	-5599
▁Dog	-5600
▁Ted	-5601
▁bre	-5602
ashes	-5603
isher	-5604
▁Bern	-5605
▁cris	-5606
▁Avoid	-5607
▁Irish	-5608
▁Roman	-5609
▁Texas	-5610
ression	-5611
written	-5612
▁Powell	-5613
▁Sinatra	-5614
▁spoilers	-5615
IGH	-5616
mal	-5617
▁Bon	-5618
▁Pri	-5619
▁nin	-5620
▁rot	-5621
etime	-5622
rehen	-5623
ugosi	-5624
▁Drew	-5625
▁till	-5626
▁facts	-5627
▁idiot	-5628
▁compos	-5629
▁makeup	-5630
▁walked	-5631
▁lesbian	-5632
▁touches	-5633
▁extraord	-5634
▁remotely	-5635
Le	-5636
gie	-5637
▁Ma	-5638
gent	-5639
▁Art	-5640
▁Kat	-5641
▁cab	-5642
▁hey	-5643
riday	-5644
taking	-5645
▁Again	-5646
▁kinds	-5647
▁unfor	-5648
ogether	-5649
viously	-5650
▁factor	-5651
▁rescue	-5652
▁evening	-5653
▁classics	-5654
▁provided	-5655
▁reporter	-5656
▁theatrical	-5657
ym	-5658
chy	-5659
ulp	-5660
itiz	-5661
▁Add	-5662
orted	-5663
otion	-5664
alling	-5665
tended	-5666
▁Gener	-5667
▁forth	-5668
▁graph	-5669
▁pregn	-5670
▁degree	-5671
▁lawyer	-5672
▁focused	-5673
▁handled	-5674
▁combined	-5675
▁distribut	-5676
▁Australian	-5677
):	-5678
ixt	-5679
icit	-5680
noon	-5681
ship	-5682
▁Cap	-5683
▁Fer	-5684
▁Aust	-5685
▁semi	-5686
arning	-5687
ighter	-5688
▁Caine	-5689
▁Wonder	-5690
▁assass	-5691
▁excess	-5692
▁enthusi	-5693
▁figured	-5694
▁streets	-5695
▁Brothers	-5696
▁evidence	-5697
▁mistakes	-5698
▁fictional	-5699
wy	-5700
"),	-5701
oln	-5702
iens	-5703
mber	-5704
▁Are	-5705
▁Rem	-5706
▁bag	-5707
imate	-5708
▁VERY	-5709
▁rend	-5710
▁antic	-5711
▁false	-5712
▁poign	-5713
▁prior	-5714
▁pursu	-5715
▁reput	-5716
▁Oliver	-5717
▁admire	-5718
including	-5719
▁bringing	-5720
▁multiple	-5721
▁overlook	-5722
▁previously	-5723
▁contemporary	-5724
2.	-5725
ENT	-5726
ume	-5727
▁BE	-5728
▁vs	-5729
pson	-5730
▁MST	-5731
▁Tod	-5732
▁fly	-5733
loved	-5734
▁heav	-5735
inging	-5736
▁Being	-5737
▁Grant	-5738
▁price	-5739
▁refer	-5740
▁bodies	-5741
▁crimin	-5742
▁capital	-5743
▁covered	-5744
▁Saturday	-5745
▁bothered	-5746
▁forgettable	-5747
▁0	-5748
ashy	-5749
chen	-5750
▁Ast	-5751
▁Dar	-5752
▁Tor	-5753
arant	-5754
▁drop	-5755
ausible	-5756
▁bitter	-5757
▁commit	-5758
▁serves	-5759
▁Francis	-5760
▁collect	-5761
▁frankly	-5762
▁Actually	-5763
▁descript	-5764
▁painting	-5765
▁continuity	-5766
ij	-5767
ivan	-5768
▁/>*	-5769
▁Bor	-5770
▁Det	-5771
▁Lam	-5772
▁Sun	-5773
stalg	-5774
▁1970	-5775
▁Dian	-5776
▁Hope	-5777
▁stom	-5778
▁chose	-5779
▁crude	-5780
▁glass	-5781
▁polic	-5782
▁Island	-5783
▁States	-5784
▁captiv	-5785
▁deaths	-5786
▁Freeman	-5787
▁contest	-5788
▁hanging	-5789
▁nostalg	-5790
▁unconvin	-5791
▁atrocious	-5792
sm	-5793
gon	-5794
▁Ty	-5795
aret	-5796
girl	-5797
▁Dem	-5798
▁abr	-5799
▁tap	-5800
▁wid	-5801
▁Fair	-5802
▁Pict	-5803
▁acqu	-5804
▁Roger	-5805
▁walks	-5806
▁buying	-5807
▁counter	-5808
▁exagger	-5809
▁killers	-5810
▁execution	-5811
▁occasional	-5812
▁propaganda	-5813
▁suspenseful	-5814
!),	-5815
▁2.	-5816
▁Bu	-5817
▁Po	-5818
▁Sky	-5819
▁eld	-5820
▁Bros	-5821
▁Camp	-5822
incoln	-5823
▁Grand	-5824
▁fairy	-5825
▁truck	-5826
lection	-5827
▁Nichol	-5828
▁Walter	-5829
▁addict	-5830
▁amazed	-5831
▁crying	-5832
▁consequ	-5833
▁dollars	-5834
▁initial	-5835
▁twisted	-5836
▁movement	-5837
▁politics	-5838
▁downright	-5839
▁favorites	-5840
▁recognize	-5841
▁sensitive	-5842
▁structure	-5843
▁subtitles	-5844
▁virtually	-5845
▁relatively	-5846
▁worthwhile	-5847
▁accidentally	-5848
Ar	-5849
Do	-5850
▁Cur	-5851
▁fab	-5852
▁mir	-5853
▁Evil	-5854
▁bore	-5855
▁rise	-5856
▁Dream	-5857
▁brave	-5858
▁dirty	-5859
▁expos	-5860
▁claims	-5861
▁inevit	-5862
▁landsc	-5863
▁latest	-5864
▁losing	-5865
▁holding	-5866
▁realizes	-5867
▁scenario	-5868
▁mainstream	-5869
Cl	-5870
hib	-5871
agal	-5872
olen	-5873
omer	-5874
pent	-5875
ston	-5876
▁Far	-5877
▁hen	-5878
▁sop	-5879
▁unp	-5880
▁Anna	-5881
▁Baby	-5882
▁cook	-5883
▁nude	-5884
▁abuse	-5885
▁plans	-5886
▁rules	-5887
▁trick	-5888
▁source	-5889
▁private	-5890
▁convince	-5891
▁dinosaur	-5892
▁presents	-5893
▁Sometimes	-5894
▁committed	-5895
▁performed	-5896
▁Especially	-5897
IR	-5898
ww	-5899
kins	-5900
udes	-5901
▁Dun	-5902
▁None	-5903
▁harm	-5904
▁Devil	-5905
▁camer	-5906
▁paint	-5907
▁toler	-5908
osexual	-5909
▁arrest	-5910
▁closer	-5911
▁stayed	-5912
▁suffer	-5913
▁Captain	-5914
▁renting	-5915
▁haunting	-5916
▁narration	-5917
▁supernatural	-5918
Yes	-5919
ils	-5920
orb	-5921
aren	-5922
▁BBC	-5923
▁Does	-5924
▁Eliz	-5925
▁libr	-5926
belief	-5927
▁paced	-5928
ullivan	-5929
▁Lugosi	-5930
▁Sunday	-5931
▁awards	-5932
▁vampires	-5933
▁Cinderella	-5934
ION	-5935
ems	-5936
▁SE	-5937
oles	-5938
▁MGM	-5939
▁Off	-5940
▁Sal	-5941
▁arg	-5942
▁Curt	-5943
▁Hong	-5944
▁batt	-5945
formed	-5946
▁MOVIE	-5947
▁revel	-5948
▁scale	-5949
▁sorts	-5950
▁Without	-5951
▁offered	-5952
▁outrage	-5953
▁weekend	-5954
▁overwhel	-5955
▁Apparently	-5956
▁California	-5957
▁controvers	-5958
▁appreciated	-5959
▁experienced	-5960
ait	-5961
eds	-5962
hau	-5963
ule	-5964
umm	-5965
aming	-5966
▁Mill	-5967
▁Much	-5968
▁heck	-5969
▁wear	-5970
▁upset	-5971
outhern	-5972
▁Edward	-5973
▁format	-5974
▁gentle	-5975
▁invent	-5976
!!!!!!!!	-5977
▁haunted	-5978
▁section	-5979
▁surface	-5980
▁tremend	-5981
BI	-5982
Fi	-5983
dim	-5984
From	-5985
▁sav	-5986
▁Kill	-5987
▁blow	-5988
▁mask	-5989
▁sche	-5990
entist	-5991
▁North	-5992
▁rough	-5993
umbling	-5994
▁gritty	-5995
▁guilty	-5996
▁Finally	-5997
▁Lincoln	-5998
▁sympathy	-5999
▁werewolf	-6000
▁slapstick	-6001
▁unconvincing	-6002
GE	-6003
").	-6004
▁NE	-6005
▁fu	-6006
Just	-6007
▁flo	-6008
▁sne	-6009
hamed	-6010
ilton	-6011
▁Page	-6012
▁flow	-6013
▁snow	-6014
▁term	-6015
Anyway	-6016
▁chair	-6017
▁loyal	-6018
▁pulls	-6019
▁spite	-6020
▁colors	-6021
▁extras	-6022
▁health	-6023
▁spends	-6024
▁focuses	-6025
▁magical	-6026
▁sounded	-6027
▁stomach	-6028
▁trilogy	-6029
▁featured	-6030
▁required	-6031
▁settings	-6032
▁reputation	-6033
▁frightening	-6034
▁intellectual	-6035
AA	-6036
gen	-6037
▁1.	-6038
▁16	-6039
▁Cru	-6040
▁ded	-6041
eness	-6042
▁Your	-6043
▁jeal	-6044
▁jobs	-6045
atives	-6046
▁Later	-6047
▁minds	-6048
▁stays	-6049
▁worry	-6050
▁United	-6051
▁method	-6052
▁Branagh	-6053
▁besides	-6054
▁cutting	-6055
▁directly	-6056
▁football	-6057
▁particip	-6058
▁creatures	-6059
▁melodrama	-6060
tr	-6061
nes	-6062
▁Ku	-6063
ease	-6064
hise	-6065
iled	-6066
irds	-6067
orig	-6068
umph	-6069
▁Eve	-6070
▁Jay	-6071
▁bab	-6072
ungle	-6073
▁Comm	-6074
▁Hoff	-6075
▁sink	-6076
assion	-6077
▁Beaut	-6078
▁bound	-6079
▁teens	-6080
onsider	-6081
▁accomp	-6082
▁scares	-6083
▁Halloween	-6084
▁understood	-6085
wing	-6086
▁192	-6087
▁ANY	-6088
▁ade	-6089
plend	-6090
stery	-6091
▁core	-6092
▁swim	-6093
▁About	-6094
▁anger	-6095
▁consp	-6096
▁dozen	-6097
▁encou	-6098
▁obnox	-6099
▁emphas	-6100
▁paying	-6101
▁stolen	-6102
▁delivery	-6103
▁according	-6104
▁ludicrous	-6105
ieu	-6106
oid	-6107
urs	-6108
▁CH	-6109
iday	-6110
reek	-6111
amous	-6112
craft	-6113
world	-6114
▁Comp	-6115
▁Wall	-6116
▁blah	-6117
▁jail	-6118
▁link	-6119
▁India	-6120
▁table	-6121
▁teeth	-6122
Another	-6123
▁device	-6124
▁Patrick	-6125
▁passing	-6126
▁demonstr	-6127
▁influence	-6128
▁everywhere	-6129
BO	-6130
IA	-6131
fet	-6132
▁17	-6133
▁Bog	-6134
▁Old	-6135
after	-6136
▁Plan	-6137
▁cann	-6138
▁cust	-6139
▁shut	-6140
▁Child	-6141
▁views	-6142
▁Brooks	-6143
▁Donald	-6144
▁decades	-6145
▁freedom	-6146
▁designed	-6147
▁encounter	-6148
▁complicated	-6149
▁ly	-6150
laim	-6151
▁USA	-6152
plays	-6153
stone	-6154
apping	-6155
arable	-6156
▁Carol	-6157
▁dynam	-6158
▁guard	-6159
▁liber	-6160
▁spark	-6161
▁Rachel	-6162
▁praise	-6163
Although	-6164
atherine	-6165
▁Vietnam	-6166
▁concent	-6167
▁heavily	-6168
▁preview	-6169
▁touched	-6170
▁explains	-6171
▁afternoon	-6172
▁listening	-6173
▁stereotypical	-6174
bid	-6175
hal	-6176
low	-6177
ona	-6178
▁LOV	-6179
▁scr	-6180
enced	-6181
ronic	-6182
▁Flor	-6183
▁Kore	-6184
▁page	-6185
▁rank	-6186
▁surf	-6187
called	-6188
▁theory	-6189
▁Hoffman	-6190
▁Through	-6191
▁massive	-6192
▁prostit	-6193
▁sheriff	-6194
▁abandoned	-6195
▁disbelief	-6196
ida	-6197
ito	-6198
▁SO	-6199
amor	-6200
list	-6201
▁***	-6202
▁Bac	-6203
arden	-6204
lover	-6205
▁unif	-6206
except	-6207
▁Count	-6208
▁blown	-6209
▁campy	-6210
▁chuck	-6211
▁ideal	-6212
▁indie	-6213
▁river	-6214
▁simpl	-6215
▁During	-6216
▁Movies	-6217
▁borrow	-6218
▁castle	-6219
▁reward	-6220
▁winner	-6221
▁anticip	-6222
▁evident	-6223
▁funnier	-6224
▁guarant	-6225
▁sisters	-6226
▁veteran	-6227
▁welcome	-6228
▁incident	-6229
▁treasure	-6230
▁depiction	-6231
Who	-6232
onel	-6233
▁dom	-6234
▁fix	-6235
▁Each	-6236
▁fond	-6237
▁task	-6238
anding	-6239
▁10/10	-6240
▁disag	-6241
▁guest	-6242
▁hired	-6243
▁improve	-6244
▁journal	-6245
▁contract	-6246
▁profound	-6247
▁significant	-6248
.)<	-6249
ari	-6250
fun	-6251
igr	-6252
▁Ob	-6253
▁Us	-6254
▁nu	-6255
case	-6256
ucky	-6257
▁/>4	-6258
▁Kid	-6259
▁cro	-6260
▁gre	-6261
▁pan	-6262
mates	-6263
▁kung	-6264
▁Susan	-6265
▁basis	-6266
▁ignor	-6267
▁prime	-6268
▁Bourne	-6269
▁Warner	-6270
▁quirky	-6271
▁racist	-6272
▁strict	-6273
▁choices	-6274
▁imagery	-6275
▁gruesome	-6276
▁pregnant	-6277
▁Otherwise	-6278
▁naturally	-6279
▁screening	-6280
▁statement	-6281
hob	-6282
ught	-6283
▁Lem	-6284
▁Mic	-6285
▁Dean	-6286
▁Vinc	-6287
▁evol	-6288
▁gain	-6289
▁Hardy	-6290
cellent	-6291
▁increas	-6292
▁miscast	-6293
▁summary	-6294
utherland	-6295
▁Victoria	-6296
▁security	-6297
▁desperately	-6298
▁originality	-6299
▁storytelling	-6300
Man	-6301
zil	-6302
fall	-6303
weet	-6304
wyck	-6305
▁Ned	-6306
▁sea	-6307
ioned	-6308
▁Amaz	-6309
▁inha	-6310
▁lift	-6311
▁unbe	-6312
▁China	-6313
▁Julia	-6314
▁Cooper	-6315
▁Direct	-6316
▁deeper	-6317
▁facial	-6318
▁intens	-6319
▁lights	-6320
▁Johnson	-6321
▁courage	-6322
▁stylish	-6323
ibilities	-6324
▁changing	-6325
▁criminals	-6326
▁effectively	-6327
▁reminiscent	-6328
ola	-6329
▁Da	-6330
ethe	-6331
▁Cus	-6332
▁Die	-6333
▁Min	-6334
▁Tri	-6335
▁ain	-6336
▁ice	-6337
▁ton	-6338
▁Beck	-6339
▁Come	-6340
▁Emma	-6341
▁Vamp	-6342
▁tear	-6343
antage	-6344
▁ambit	-6345
▁sides	-6346
▁topic	-6347
▁Friday	-6348
▁Sidney	-6349
▁mechan	-6350
▁placed	-6351
▁reject	-6352
▁Mexican	-6353
▁Sandler	-6354
▁artists	-6355
▁carried	-6356
▁closing	-6357
▁comical	-6358
▁halfway	-6359
▁variety	-6360
▁enjoying	-6361
▁faithful	-6362
▁legendary	-6363
▁conversation	-6364
Ne	-6365
add	-6366
▁Gi	-6367
▁HA	-6368
kind	-6369
oche	-6370
rees	-6371
▁Rec	-6372
▁fet	-6373
▁lie	-6374
▁mas	-6375
Watch	-6376
adays	-6377
igned	-6378
▁Have	-6379
▁blat	-6380
▁Sarah	-6381
▁chief	-6382
▁cheese	-6383
▁driven	-6384
▁integr	-6385
▁lonely	-6386
▁shadow	-6387
▁status	-6388
▁ashamed	-6389
▁confess	-6390
▁contact	-6391
▁service	-6392
something	-6393
▁murderer	-6394
▁psychiat	-6395
▁contribut	-6396
▁obnoxious	-6397
▁sentimental	-6398
Is	-6399
asp	-6400
▁MU	-6401
▁Sk	-6402
alia	-6403
ianc	-6404
▁Inc	-6405
Every	-6406
order	-6407
▁Lore	-6408
▁Marg	-6409
▁Yeah	-6410
▁wand	-6411
▁Alice	-6412
▁Music	-6413
▁buddy	-6414
▁goofy	-6415
▁metap	-6416
▁Mexico	-6417
▁Person	-6418
▁Virgin	-6419
▁betray	-6420
▁execut	-6421
▁handle	-6422
▁mildly	-6423
▁native	-6424
▁answers	-6425
▁starred	-6426
▁drinking	-6427
▁destroyed	-6428
▁department	-6429
▁inspiration	-6430
▁international	-6431
oyd	-6432
zel	-6433
fess	-6434
lynn	-6435
▁/>(	-6436
▁Cub	-6437
eston	-6438
eturn	-6439
osity	-6440
▁Swed	-6441
▁mira	-6442
▁thro	-6443
iamond	-6444
rehens	-6445
▁Larry	-6446
▁enhan	-6447
▁caring	-6448
▁extent	-6449
▁splend	-6450
▁uninsp	-6451
▁beloved	-6452
▁fabulous	-6453
▁position	-6454
▁prepared	-6455
dimensional	-6456
zed	-6457
alph	-6458
iger	-6459
▁Wid	-6460
▁nom	-6461
onest	-6462
style	-6463
▁Army	-6464
▁arch	-6465
▁cous	-6466
▁irre	-6467
▁picks	-6468
▁shape	-6469
▁vivid	-6470
▁wrest	-6471
▁Rogers	-6472
▁warned	-6473
▁Matthau	-6474
▁examples	-6475
▁graphics	-6476
▁horrific	-6477
▁musicals	-6478
▁Basically	-6479
▁criticism	-6480
▁embarrassed	-6481
"?	-6482
/1	-6483
IM	-6484
ns	-6485
ani	-6486
die	-6487
hem	-6488
imm	-6489
uty	-6490
IGHT	-6491
mond	-6492
▁Arn	-6493
▁McG	-6494
▁(199	-6495
▁Ball	-6496
▁Bett	-6497
▁Iran	-6498
▁join	-6499
▁rule	-6500
▁tong	-6501
▁Tracy	-6502
▁divor	-6503
ounding	-6504
▁Dennis	-6505
▁access	-6506
▁mature	-6507
etheless	-6508
▁Besides	-6509
▁spoiler	-6510
▁mountain	-6511
▁sophistic	-6512
▁extraordinary	-6513
ela	-6514
▁AL	-6515
▁Ra	-6516
▁cy	-6517
ante	-6518
hist	-6519
phan	-6520
▁Lost	-6521
▁Mean	-6522
▁lazy	-6523
▁yell	-6524
Christ	-6525
▁Phill	-6526
▁Killer	-6527
▁Knight	-6528
▁causes	-6529
▁helping	-6530
▁trapped	-6531
▁properly	-6532
▁Sutherland	-6533
▁description	-6534
KE	-6535
ico	-6536
erek	-6537
hard	-6538
imin	-6539
▁90'	-6540
▁MAN	-6541
▁asp	-6542
elson	-6543
oding	-6544
ouses	-6545
▁Back	-6546
▁cand	-6547
▁seek	-6548
▁wins	-6549
coming	-6550
ulated	-6551
▁Julie	-6552
▁cases	-6553
Michael	-6554
oration	-6555
▁timing	-6556
ographer	-6557
▁ratings	-6558
▁reveals	-6559
▁rolling	-6560
▁guessing	-6561
▁throwing	-6562
▁universe	-6563
▁President	-6564
▁challenge	-6565
By	-6566
hop	-6567
▁ul	-6568
aust	-6569
fest	-6570
isms	-6571
umbs	-6572
▁Alt	-6573
▁Son	-6574
▁fil	-6575
▁vir	-6576
▁Oliv	-6577
▁Turn	-6578
▁Wend	-6579
▁seve	-6580
▁tiny	-6581
▁Charl	-6582
▁Three	-6583
▁magaz	-6584
▁stunt	-6585
▁Seagal	-6586
▁deadly	-6587
▁forest	-6588
▁horrend	-6589
▁univers	-6590
▁critical	-6591
▁mindless	-6592
▁condition	-6593
▁stupidity	-6594
50	-6595
CT	-6596
wl	-6597
Dan	-6598
Let	-6599
ads	-6600
rol	-6601
▁Hy	-6602
aves	-6603
onda	-6604
plin	-6605
▁Dep	-6606
▁hip	-6607
▁rub	-6608
▁(200	-6609
▁bill	-6610
▁vast	-6611
semble	-6612
▁Baker	-6613
▁Enter	-6614
▁Under	-6615
▁cance	-6616
▁suffe	-6617
▁Miller	-6618
▁Philip	-6619
▁sleazy	-6620
▁carries	-6621
▁figures	-6622
▁related	-6623
▁wasting	-6624
▁Stanwyck	-6625
▁learning	-6626
▁retarded	-6627
▁succeeds	-6628
▁breathtaking	-6629
▁presentation	-6630
Des	-6631
ONE	-6632
OOD	-6633
▁Pa	-6634
ader	-6635
iner	-6636
isha	-6637
mate	-6638
oooo	-6639
erved	-6640
▁argu	-6641
▁pupp	-6642
lected	-6643
▁autom	-6644
▁crash	-6645
▁relax	-6646
▁serve	-6647
▁wears	-6648
tending	-6649
▁spoken	-6650
▁throws	-6651
▁escapes	-6652
▁install	-6653
▁subsequ	-6654
▁everyday	-6655
▁interact	-6656
▁mentally	-6657
▁overcome	-6658
▁replaced	-6659
▁enjoyment	-6660
▁Definitely	-6661
▁productions	-6662
▁introduction	-6663
▁personalities	-6664
Dav	-6665
iko	-6666
..."	-6667
▁Ara	-6668
▁Raj	-6669
▁Sir	-6670
▁ske	-6671
erior	-6672
lance	-6673
umber	-6674
vably	-6675
▁adop	-6676
▁inco	-6677
▁isol	-6678
▁pool	-6679
▁risk	-6680
▁domin	-6681
▁enter	-6682
▁incor	-6683
▁wound	-6684
▁novels	-6685
▁raised	-6686
▁resist	-6687
▁virgin	-6688
breaking	-6689
▁concert	-6690
▁cultural	-6691
▁distinct	-6692
▁poignant	-6693
▁revolves	-6694
▁Elizabeth	-6695
▁atmospher	-6696
▁countries	-6697
▁struggles	-6698
▁adventures	-6699
▁expressions	-6700
▁successfully	-6701
▁uncomfortable	-6702
ago	-6703
sha	-6704
▁NY	-6705
aver	-6706
rael	-6707
vira	-6708
▁Fay	-6709
▁Veg	-6710
▁bon	-6711
story	-6712
▁Play	-6713
▁Take	-6714
▁laid	-6715
ogical	-6716
▁raise	-6717
forward	-6718
iveness	-6719
▁Holmes	-6720
▁shorts	-6721
▁Channel	-6722
▁calling	-6723
▁weapons	-6724
▁attacked	-6725
▁reference	-6726
Mar	-6727
col	-6728
eral	-6729
fits	-6730
inda	-6731
▁Ire	-6732
▁Lat	-6733
▁via	-6734
asant	-6735
going	-6736
osing	-6737
▁Sher	-6738
▁diss	-6739
▁torn	-6740
▁Blair	-6741
▁clips	-6742
▁cring	-6743
▁franc	-6744
▁repet	-6745
▁Leslie	-6746
▁rights	-6747
▁Jessica	-6748
▁balance	-6749
▁illustr	-6750
▁plastic	-6751
▁scripts	-6752
▁comedian	-6753
▁amazingly	-6754
▁daughters	-6755
UR	-6756
1/2	-6757
▁vi	-6758
▁FBI	-6759
▁Ree	-6760
▁Run	-6761
▁WOR	-6762
▁Wes	-6763
▁wha	-6764
prise	-6765
▁Home	-6766
▁butt	-6767
▁trap	-6768
mitted	-6769
▁cheer	-6770
▁elder	-6771
▁grave	-6772
▁innov	-6773
▁Unlike	-6774
▁border	-6775
▁exists	-6776
▁ignore	-6777
▁ironic	-6778
gettable	-6779
▁dislike	-6780
▁carrying	-6781
▁friendly	-6782
▁advantage	-6783
▁confusion	-6784
▁essential	-6785
▁happiness	-6786
▁credibility	-6787
▁neighborhood	-6788
aste	-6789
ooby	-6790
wife	-6791
▁rat	-6792
anned	-6793
ifies	-6794
iques	-6795
▁Kurt	-6796
▁mere	-6797
▁Flynn	-6798
▁sings	-6799
▁attend	-6800
▁titles	-6801
▁mansion	-6802
▁princip	-6803
▁accompan	-6804
▁gripping	-6805
▁sinister	-6806
▁homosexual	-6807
▁exceptional	-6808
▁necessarily	-6809
Bra	-6810
TER	-6811
can	-6812
ggy	-6813
jud	-6814
len	-6815
llo	-6816
uls	-6817
cons	-6818
loff	-6819
▁BAD	-6820
▁Ren	-6821
▁ped	-6822
▁Mira	-6823
▁Rick	-6824
▁dogs	-6825
▁grim	-6826
comedy	-6827
▁Award	-6828
▁Brend	-6829
▁Elvis	-6830
▁Produ	-6831
▁Ralph	-6832
▁aston	-6833
▁broke	-6834
▁Burton	-6835
▁Oscars	-6836
▁REALLY	-6837
▁purely	-6838
▁Andrews	-6839
▁Widmark	-6840
▁alright	-6841
▁greater	-6842
▁greatly	-6843
▁lessons	-6844
▁patient	-6845
▁breaking	-6846
▁Bollywood	-6847
▁connected	-6848
▁intensity	-6849
▁obsession	-6850
▁thrilling	-6851
▁interviews	-6852
▁terrifying	-6853
▁imaginative	-6854
BS	-6855
LD	-6856
end	-6857
hay	-6858
ket	-6859
mod	-6860
Good	-6861
Paul	-6862
appy	-6863
inch	-6864
utter	-6865
▁Nazi	-6866
▁True	-6867
▁unre	-6868
▁disgu	-6869
▁jumps	-6870
▁stumb	-6871
▁tempt	-6872
▁trite	-6873
▁wanna	-6874
▁Claire	-6875
▁Israel	-6876
▁Nelson	-6877
▁cameos	-6878
▁corpor	-6879
▁driver	-6880
▁minimal	-6881
▁Sullivan	-6882
▁determined	-6883
3,	-6884
CK	-6885
OP	-6886
US	-6887
wh	-6888
aze	-6889
ila	-6890
▁:)	-6891
sett	-6892
▁60'	-6893
▁Rep	-6894
▁gro	-6895
▁slo	-6896
▁Lion	-6897
▁Reed	-6898
▁Shan	-6899
▁Soon	-6900
▁WWII	-6901
▁decl	-6902
▁tree	-6903
penter	-6904
▁Hanks	-6905
▁Italy	-6906
▁aired	-6907
▁femin	-6908
▁finan	-6909
▁spook	-6910
▁Intern	-6911
▁served	-6912
▁weight	-6913
▁Chaplin	-6914
▁Someone	-6915
▁annoyed	-6916
▁dubbing	-6917
▁wealthy	-6918
▁sleeping	-6919
3)	-6920
aude	-6921
beit	-6922
iffe	-6923
udge	-6924
utch	-6925
▁Fel	-6926
▁bik	-6927
▁inj	-6928
▁mac	-6929
impse	-6930
retty	-6931
▁1930	-6932
▁Geor	-6933
▁Scar	-6934
▁Stud	-6935
▁dece	-6936
▁dign	-6937
▁phen	-6938
▁tune	-6939
▁Derek	-6940
▁Ghost	-6941
▁Power	-6942
▁coinc	-6943
▁hoped	-6944
▁tense	-6945
ception	-6946
▁Arnold	-6947
▁Curtis	-6948
▁Cusack	-6949
▁Police	-6950
▁Spring	-6951
▁aliens	-6952
▁charge	-6953
▁locked	-6954
▁turkey	-6955
▁wishes	-6956
▁Charact	-6957
▁dialogs	-6958
▁glimpse	-6959
▁credible	-6960
▁suffered	-6961
▁assistant	-6962
▁attempting	-6963
,'	-6964
2)	-6965
cr	-6966
gun	-6967
amie	-6968
from	-6969
iano	-6970
rial	-6971
▁Sav	-6972
▁raw	-6973
▁spy	-6974
verse	-6975
▁(198	-6976
▁Burt	-6977
▁Port	-6978
▁firm	-6979
ection	-6980
horror	-6981
iments	-6982
ipping	-6983
liners	-6984
▁Bette	-6985
▁enorm	-6986
▁traum	-6987
ielberg	-6988
▁Heaven	-6989
▁Jewish	-6990
▁Living	-6991
▁Walken	-6992
▁shines	-6993
▁Roberts	-6994
▁Stanley	-6995
▁cynical	-6996
▁medical	-6997
▁ensemble	-6998
▁explicit	-6999
▁splendid	-7000
▁complaint	-7001
▁atmospheric	-7002
▁protagonists	-7003
▁screenwriter	-7004
rig	-7005
eter	-7006
▁Guy	-7007
actic	-7008
adget	-7009
ipped	-7010
orses	-7011
place	-7012
udson	-7013
▁Lake	-7014
▁Reyn	-7015
▁fulf	-7016
▁sket	-7017
▁tied	-7018
▁arrog	-7019
▁crack	-7020
▁Church	-7021
▁Family	-7022
▁flawed	-7023
▁ghosts	-7024
▁nation	-7025
▁tongue	-7026
▁lovable	-7027
▁prevent	-7028
▁Michelle	-7029
▁Probably	-7030
▁superfic	-7031
▁regarding	-7032
▁spiritual	-7033
▁performers	-7034
▁interpretation	-7035
1,	-7036
ali	-7037
oms	-7038
▁**	-7039
▁PL	-7040
Will	-7041
acre	-7042
allo	-7043
fire	-7044
hall	-7045
rich	-7046
udos	-7047
when	-7048
▁Dad	-7049
▁bow	-7050
▁Gray	-7051
▁puzz	-7052
▁Class	-7053
▁invis	-7054
▁robot	-7055
▁solve	-7056
▁toile	-7057
▁Foster	-7058
▁Friend	-7059
▁fallen	-7060
▁hooked	-7061
▁opened	-7062
▁plague	-7063
▁racism	-7064
▁arrives	-7065
▁chilling	-7066
▁develops	-7067
▁disagree	-7068
▁nowadays	-7069
▁separate	-7070
▁troubled	-7071
▁competent	-7072
▁marvelous	-7073
▁nightmare	-7074
▁meaningful	-7075
hh	-7076
tes	-7077
▁'7	-7078
▁DE	-7079
▁LI	-7080
▁Mom	-7081
▁gar	-7082
▁aged	-7083
▁dude	-7084
▁hill	-7085
▁lust	-7086
▁sedu	-7087
▁Camer	-7088
▁angle	-7089
▁devil	-7090
▁eerie	-7091
▁depend	-7092
▁neighb	-7093
▁smooth	-7094
▁convict	-7095
▁dragged	-7096
▁library	-7097
▁Universal	-7098
▁searching	-7099
▁incoherent	-7100
1.	-7101
Mr	-7102
▁Di	-7103
----	-7104
avor	-7105
book	-7106
hest	-7107
only	-7108
▁Sol	-7109
▁sky	-7110
▁2000	-7111
itanic	-7112
▁adequ	-7113
▁enemy	-7114
▁steps	-7115
▁trial	-7116
▁ultra	-7117
▁urban	-7118
▁Glover	-7119
▁afford	-7120
▁stunts	-7121
▁tender	-7122
▁attacks	-7123
▁beating	-7124
▁belongs	-7125
▁manager	-7126
▁refuses	-7127
▁checking	-7128
▁homeless	-7129
▁specific	-7130
UL	-7131
ANT	-7132
lee	-7133
ugh	-7134
airs	-7135
gain	-7136
▁Cry	-7137
▁tow	-7138
dated	-7139
othic	-7140
▁(197	-7141
▁1990	-7142
▁exer	-7143
▁hack	-7144
▁Helen	-7145
▁caric	-7146
▁daily	-7147
▁metal	-7148
▁oblig	-7149
▁stiff	-7150
▁Acting	-7151
▁adding	-7152
▁drives	-7153
▁gather	-7154
▁parall	-7155
▁ripped	-7156
▁unfold	-7157
▁boredom	-7158
▁deliber	-7159
▁happily	-7160
▁letting	-7161
ification	-7162
▁charisma	-7163
▁broadcast	-7164
▁franchise	-7165
▁sexuality	-7166
▁frequently	-7167
▁underground	-7168
EAD	-7169
ELL	-7170
urse	-7171
▁Dal	-7172
▁alt	-7173
gging	-7174
happy	-7175
▁Cole	-7176
▁Falk	-7177
▁Nort	-7178
▁anal	-7179
redict	-7180
▁Chuck	-7181
▁backd	-7182
▁Bettie	-7183
▁Brando	-7184
▁ingred	-7185
▁parano	-7186
▁Britain	-7187
▁amongst	-7188
▁idiotic	-7189
▁colorful	-7190
▁concerns	-7191
▁hundreds	-7192
▁segments	-7193
▁Seriously	-7194
▁expensive	-7195
▁intention	-7196
▁thousands	-7197
▁horrendous	-7198
▁perfection	-7199
▁established	-7200
El	-7201
hey	-7202
ibl	-7203
▁24	-7204
hill	-7205
kick	-7206
loyd	-7207
▁Cow	-7208
▁Ira	-7209
▁Mid	-7210
▁Our	-7211
....<	-7212
▁Carr	-7213
▁Land	-7214
▁Lisa	-7215
▁farm	-7216
▁guts	-7217
▁myth	-7218
entric	-7219
▁Grace	-7220
▁lying	-7221
▁notch	-7222
▁poster	-7223
▁switch	-7224
▁immense	-7225
▁pointed	-7226
▁Reynolds	-7227
▁SPOILERS	-7228
▁accepted	-7229
▁basement	-7230
▁consists	-7231
▁vacation	-7232
▁Spielberg	-7233
▁endearing	-7234
!.	-7235
Tw	-7236
ni	-7237
phe	-7238
ype	-7239
▁Ken	-7240
▁Met	-7241
ellar	-7242
eremy	-7243
▁Buck	-7244
▁Gabr	-7245
▁Gand	-7246
▁jerk	-7247
ements	-7248
ointed	-7249
▁Candy	-7250
▁Sorry	-7251
▁dealt	-7252
▁drags	-7253
▁equal	-7254
▁miles	-7255
▁queen	-7256
▁saves	-7257
▁stops	-7258
▁upper	-7259
▁widow	-7260
▁elabor	-7261
▁hiding	-7262
▁horses	-7263
▁videos	-7264
▁notable	-7265
▁tribute	-7266
▁portrait	-7267
▁Something	-7268
▁countless	-7269
▁president	-7270
▁thrillers	-7271
▁profession	-7272
,,	-7273
5.	-7274
ws	-7275
BLE	-7276
cut	-7277
mit	-7278
ocr	-7279
▁Wr	-7280
▁pa	-7281
onne	-7282
▁Imp	-7283
▁Saw	-7284
▁Tha	-7285
▁rhy	-7286
▁tro	-7287
arter	-7288
iable	-7289
ierce	-7290
vised	-7291
▁Conn	-7292
▁fish	-7293
▁hype	-7294
▁legs	-7295
▁myst	-7296
▁Woman	-7297
▁plant	-7298
ishment	-7299
▁Hudson	-7300
▁abrupt	-7301
▁chases	-7302
▁Vincent	-7303
▁crafted	-7304
▁seeking	-7305
▁sexually	-7306
▁wondered	-7307
▁Meanwhile	-7308
▁Obviously	-7309
▁innocence	-7310
OK	-7311
via	-7312
why	-7313
imag	-7314
quis	-7315
rell	-7316
rett	-7317
▁Hop	-7318
▁Jac	-7319
▁Lum	-7320
▁lur	-7321
plots	-7322
▁Fire	-7323
▁Give	-7324
▁irony	-7325
▁newsp	-7326
▁noted	-7327
▁occup	-7328
▁proof	-7329
emption	-7330
uristic	-7331
▁Heston	-7332
▁Matrix	-7333
▁Muslim	-7334
▁larger	-7335
▁lesser	-7336
▁shower	-7337
existent	-7338
ographic	-7339
▁General	-7340
▁explore	-7341
▁attached	-7342
▁darkness	-7343
▁inexplic	-7344
▁killings	-7345
▁official	-7346
▁weakness	-7347
▁disappear	-7348
▁initially	-7349
▁unforgettable	-7350
rep	-7351
too	-7352
▁AT	-7353
▁EN	-7354
▁MA	-7355
▁PG	-7356
elve	-7357
ingu	-7358
rict	-7359
▁ABC	-7360
▁Cel	-7361
▁Nol	-7362
▁fac	-7363
▁flu	-7364
▁gal	-7365
▁oil	-7366
▁tab	-7367
orrow	-7368
ulate	-7369
▁Rand	-7370
▁Were	-7371
▁eleg	-7372
▁fest	-7373
▁remo	-7374
▁webs	-7375
iation	-7376
idents	-7377
rified	-7378
riller	-7379
▁Along	-7380
▁Check	-7381
▁Witch	-7382
▁drown	-7383
▁entry	-7384
▁fears	-7385
▁guilt	-7386
▁spots	-7387
▁Carrey	-7388
▁School	-7389
▁preach	-7390
▁presum	-7391
▁releas	-7392
▁repeat	-7393
▁wicked	-7394
▁thrills	-7395
mentioned	-7396
▁national	-7397
▁spending	-7398
▁techniques	-7399
ez	-7400
Con	-7401
oni	-7402
rer	-7403
athy	-7404
ibal	-7405
imum	-7406
irit	-7407
▁Bus	-7408
▁Cox	-7409
▁pse	-7410
▁tax	-7411
David	-7412
woman	-7413
▁Lucy	-7414
▁Real	-7415
▁arms	-7416
▁cock	-7417
▁dump	-7418
▁grad	-7419
▁meat	-7420
▁neck	-7421
▁rain	-7422
ctions	-7423
▁Burns	-7424
▁Lloyd	-7425
▁Satan	-7426
▁grows	-7427
▁loser	-7428
▁sends	-7429
▁virus	-7430
▁Canada	-7431
▁Ritter	-7432
▁covers	-7433
▁dramat	-7434
▁incons	-7435
▁jungle	-7436
▁surviv	-7437
▁detract	-7438
▁pleased	-7439
▁triumph	-7440
▁identify	-7441
▁millions	-7442
▁insulting	-7443
▁ourselves	-7444
▁technique	-7445
▁physically	-7446
▁tremendous	-7447
▁appearances	-7448
9.	-7449
hs	-7450
?),	-7451
dan	-7452
non	-7453
ora	-7454
yre	-7455
▁Vo	-7456
agan	-7457
▁Eva	-7458
▁GRE	-7459
▁Rub	-7460
anski	-7461
iracy	-7462
worth	-7463
▁Blue	-7464
▁Boll	-7465
▁Prin	-7466
▁goal	-7467
▁nuts	-7468
▁wann	-7469
ifying	-7470
inally	-7471
▁Could	-7472
▁Laura	-7473
▁Would	-7474
▁ambig	-7475
▁beach	-7476
▁bucks	-7477
▁wreck	-7478
▁Hunter	-7479
▁dinner	-7480
▁adapted	-7481
▁fortune	-7482
▁network	-7483
▁stretch	-7484
▁Eastwood	-7485
▁requires	-7486
▁striking	-7487
▁suggests	-7488
▁hopefully	-7489
▁kidnapped	-7490
▁reactions	-7491
▁charismatic	-7492
▁controversial	-7493
?).	-7494
ams	-7495
▁BL	-7496
unky	-7497
vest	-7498
▁Fle	-7499
▁Log	-7500
acted	-7501
atisf	-7502
plete	-7503
▁Club	-7504
▁Ever	-7505
▁Mass	-7506
▁Roll	-7507
▁imit	-7508
▁mont	-7509
oilers	-7510
▁Grade	-7511
▁Krist	-7512
▁eager	-7513
▁fianc	-7514
▁fired	-7515
▁thick	-7516
▁walls	-7517
▁Elvira	-7518
▁Scooby	-7519
▁cousin	-7520
▁listed	-7521
▁rushed	-7522
original	-7523
▁Karloff	-7524
▁madness	-7525
▁reunion	-7526
▁strangely	-7527
▁surrounded	-7528
▁superficial	-7529
▁melodramatic	-7530
Ad	-7531
sl	-7532
alo	-7533
bal	-7534
lon	-7535
Star	-7536
ases	-7537
corn	-7538
ocal	-7539
urai	-7540
▁Age	-7541
▁Lan	-7542
▁Ten	-7543
▁sam	-7544
agney	-7545
conom	-7546
oiler	-7547
riter	-7548
▁Book	-7549
▁Cook	-7550
▁Greg	-7551
▁cere	-7552
▁moon	-7553
▁sons	-7554
......	-7555
direct	-7556
resses	-7557
▁Think	-7558
▁strip	-7559
onestly	-7560
▁Things	-7561
▁announ	-7562
▁flight	-7563
▁perpet	-7564
▁sevent	-7565
▁spread	-7566
▁toilet	-7567
ccentric	-7568
▁Science	-7569
▁essence	-7570
▁handful	-7571
▁holiday	-7572
▁restaur	-7573
▁workers	-7574
▁maintain	-7575
▁attempted	-7576
▁associated	-7577
80	-7578
Ex	-7579
den	-7580
eps	-7581
cket	-7582
cula	-7583
quel	-7584
▁Dev	-7585
▁hes	-7586
asion	-7587
watch	-7588
▁Cost	-7589
▁Jake	-7590
▁nose	-7591
▁ruth	-7592
▁tons	-7593
▁Felix	-7594
▁etern	-7595
▁faced	-7596
▁quote	-7597
▁Silver	-7598
▁drivel	-7599
▁mirror	-7600
▁packed	-7601
▁resour	-7602
▁tricks	-7603
atchable	-7604
▁closely	-7605
▁comfort	-7606
▁command	-7607
▁useless	-7608
▁flawless	-7609
▁messages	-7610
▁phenomen	-7611
▁projects	-7612
▁thousand	-7613
▁Carpenter	-7614
▁Catherine	-7615
▁curiosity	-7616
▁acceptable	-7617
▁intentions	-7618
▁pleasantly	-7619
▁photographer	-7620
jo	-7621
Per	-7622
aka	-7623
obe	-7624
orc	-7625
tte	-7626
van	-7627
▁Fu	-7628
crow	-7629
iors	-7630
onse	-7631
▁Aud	-7632
▁End	-7633
▁Has	-7634
▁Mil	-7635
▁Reg	-7636
▁alb	-7637
▁bul	-7638
▁eth	-7639
▁wra	-7640
Maybe	-7641
▁Bach	-7642
▁abys	-7643
▁busy	-7644
▁jack	-7645
▁reli	-7646
▁vent	-7647
ifting	-7648
itizen	-7649
▁Farre	-7650
▁knife	-7651
▁limit	-7652
▁stood	-7653
▁Cagney	-7654
▁Carter	-7655
▁Laurel	-7656
▁bridge	-7657
▁infect	-7658
▁lacked	-7659
▁stated	-7660
icularly	-7661
▁Astaire	-7662
▁Dorothy	-7663
▁Consider	-7664
▁Goldberg	-7665
▁Whatever	-7666
▁childish	-7667
▁creators	-7668
▁exercise	-7669
▁overdone	-7670
▁relevant	-7671
▁stranger	-7672
▁suspects	-7673
▁transfer	-7674
▁believing	-7675
▁miserably	-7676
▁Personally	-7677
▁brilliance	-7678
▁represents	-7679
Unfortunately	-7680
▁psychiatrist	-7681
6.	-7682
ds	-7683
abel	-7684
afia	-7685
aker	-7686
gate	-7687
idel	-7688
igan	-7689
lear	-7690
path	-7691
stop	-7692
▁Daw	-7693
▁Din	-7694
▁Pan	-7695
chell	-7696
entin	-7697
human	-7698
icing	-7699
umble	-7700
video	-7701
▁Poor	-7702
▁Rome	-7703
▁dare	-7704
▁poet	-7705
uclear	-7706
urious	-7707
usions	-7708
▁Clint	-7709
▁Griff	-7710
▁Mitch	-7711
▁activ	-7712
▁kicks	-7713
▁pseud	-7714
▁split	-7715
veloped	-7716
▁Comedy	-7717
▁Morris	-7718
▁Secret	-7719
▁consum	-7720
▁dramas	-7721
▁easier	-7722
▁occurs	-7723
▁riding	-7724
▁shoots	-7725
▁struck	-7726
▁suburb	-7727
▁talked	-7728
▁thirty	-7729
▁weapon	-7730
▁Brosnan	-7731
▁battles	-7732
▁fitting	-7733
▁jealous	-7734
▁Catholic	-7735
▁achieved	-7736
▁appalling	-7737
▁appearing	-7738
▁inspiring	-7739
5,	-7740
6,	-7741
▁;	-7742
ato	-7743
pse	-7744
ril	-7745
shi	-7746
▁..	-7747
gers	-7748
ords	-7749
▁10,	-7750
▁Ice	-7751
▁Tem	-7752
▁nut	-7753
▁shy	-7754
▁feed	-7755
▁hole	-7756
▁ramp	-7757
▁wave	-7758
iently	-7759
▁alike	-7760
▁cried	-7761
▁farce	-7762
▁inacc	-7763
▁unple	-7764
▁Doctor	-7765
▁buried	-7766
▁fourth	-7767
ertainly	-7768
ological	-7769
▁Leonard	-7770
▁realise	-7771
▁selfish	-7772
▁attraction	-7773
▁uninspired	-7774
▁captivating	-7775
▁surrounding	-7776
30	-7777
60	-7778
Sh	-7779
yc	-7780
ata	-7781
▁Az	-7782
▁SN	-7783
apes	-7784
dows	-7785
iber	-7786
ogue	-7787
▁50'	-7788
▁Alf	-7789
▁Kap	-7790
▁Los	-7791
▁Res	-7792
▁mes	-7793
▁une	-7794
grade	-7795
paced	-7796
works	-7797
▁Navy	-7798
▁Such	-7799
ructed	-7800
▁Bobby	-7801
▁Lucas	-7802
▁Verho	-7803
▁cared	-7804
▁honor	-7805
▁rocks	-7806
▁Almost	-7807
▁dancer	-7808
▁econom	-7809
▁artific	-7810
▁breasts	-7811
▁conclud	-7812
▁disease	-7813
▁persona	-7814
▁wonders	-7815
▁infamous	-7816
▁timeless	-7817
▁Australia	-7818
▁professor	-7819
▁nonetheless	-7820
▁accomplished	-7821
▁documentaries	-7822
OD	-7823
nic	-7824
roy	-7825
▁5.	-7826
▁SU	-7827
Jack	-7828
bery	-7829
enes	-7830
icol	-7831
uper	-7832
▁1/2	-7833
▁CIA	-7834
▁Cre	-7835
▁Net	-7836
▁duo	-7837
▁foo	-7838
▁hun	-7839
▁Lane	-7840
▁Mann	-7841
▁Wind	-7842
▁gift	-7843
erning	-7844
minute	-7845
terday	-7846
▁Uncle	-7847
▁Water	-7848
▁afore	-7849
▁cabin	-7850
▁champ	-7851
▁gradu	-7852
▁Golden	-7853
▁beaten	-7854
▁boxing	-7855
▁comics	-7856
▁cowboy	-7857
▁dollar	-7858
▁ticket	-7859
▁vulner	-7860
Director	-7861
atically	-7862
▁fifteen	-7863
▁spoiled	-7864
▁planning	-7865
▁worthless	-7866
▁encounters	-7867
▁sophisticated	-7868
En	-7869
uf	-7870
ux	-7871
new	-7872
oto	-7873
tan	-7874
pses	-7875
▁Kra	-7876
▁Tur	-7877
▁row	-7878
▁Kane	-7879
▁Lily	-7880
▁Next	-7881
▁Ring	-7882
▁cave	-7883
▁dire	-7884
▁hung	-7885
▁nine	-7886
▁wack	-7887
▁Films	-7888
▁burst	-7889
▁ingen	-7890
▁shark	-7891
itchell	-7892
▁beings	-7893
▁crisis	-7894
▁editor	-7895
▁enters	-7896
▁height	-7897
▁letter	-7898
▁states	-7899
▁strang	-7900
▁territ	-7901
▁thread	-7902
▁Modesty	-7903
▁Picture	-7904
▁chasing	-7905
▁sympath	-7906
▁watches	-7907
▁argument	-7908
▁mistaken	-7909
▁Excellent	-7910
▁carefully	-7911
▁continued	-7912
▁secretary	-7913
▁overlooked	-7914
▁unpleasant	-7915
▁importantly	-7916
7.	-7917
9,	-7918
och	-7919
sky	-7920
▁Id	-7921
▁Oz	-7922
HING	-7923
ixon	-7924
obal	-7925
oric	-7926
▁Abs	-7927
▁Bol	-7928
▁Dom	-7929
▁Mun	-7930
▁dub	-7931
▁gee	-7932
▁jew	-7933
aning	-7934
ilted	-7935
stars	-7936
▁Four	-7937
▁Neil	-7938
▁Robb	-7939
▁Shep	-7940
▁grou	-7941
▁hire	-7942
itchen	-7943
▁Maria	-7944
▁clown	-7945
▁labor	-7946
▁patri	-7947
▁Cinema	-7948
▁Thanks	-7949
▁defend	-7950
▁hearts	-7951
▁strike	-7952
▁studios	-7953
▁definite	-7954
▁magazine	-7955
▁menacing	-7956
▁Verhoeven	-7957
▁eccentric	-7958
▁elsewhere	-7959
▁reasonably	-7960
▁resolution	-7961
▁exaggerated	-7962
idy	-7963
pin	-7964
also	-7965
icop	-7966
ophy	-7967
type	-7968
▁Att	-7969
▁Hot	-7970
▁Hug	-7971
▁III	-7972
▁dre	-7973
▁fox	-7974
▁tag	-7975
▁tea	-7976
▁toy	-7977
ortal	-7978
ushes	-7979
wered	-7980
▁Bart	-7981
▁Cher	-7982
▁Mild	-7983
▁bang	-7984
▁hipp	-7985
▁mock	-7986
ablish	-7987
ortion	-7988
rifice	-7989
uments	-7990
▁Brook	-7991
▁Perry	-7992
▁Sally	-7993
▁blend	-7994
▁brand	-7995
▁inher	-7996
▁maker	-7997
▁shout	-7998
▁Altman	-7999
▁Highly	-8000
▁convol	-8001
▁pushed	-8002
▁accused	-8003
▁elderly	-8004
▁subplot	-8005
▁generous	-8006
▁internet	-8007
▁intrigued	-8008
▁invisible	-8009
▁typically	-8010
▁frustrated	-8011
▁hysterical	-8012
▁scientists	-8013
▁destruction	-8014
▁choreography	-8015
▁consequences	-8016
▁photographed	-8017
2,	-8018
Pe	-8019
Tr	-8020
Int	-8021
arm	-8022
cil	-8023
pes	-8024
say	-8025
sho	-8026
keys	-8027
▁Atl	-8028
▁Gun	-8029
Where	-8030
verty	-8031
▁Corb	-8032
▁Need	-8033
▁Sing	-8034
▁boot	-8035
▁elev	-8036
▁folk	-8037
▁hunt	-8038
▁judg	-8039
isions	-8040
▁marks	-8041
▁merit	-8042
▁ought	-8043
▁sneak	-8044
▁warri	-8045
▁Indeed	-8046
▁corner	-8047
▁crimes	-8048
▁homage	-8049
▁idiots	-8050
▁medium	-8051
▁reluct	-8052
▁spooky	-8053
▁existed	-8054
▁nuclear	-8055
▁torment	-8056
▁scripted	-8057
▁stronger	-8058
▁Nightmare	-8059
▁ambitious	-8060
▁instantly	-8061
▁slightest	-8062
▁superhero	-8063
▁directorial	-8064
▁grandmother	-8065
▁installment	-8066
▁technically	-8067
Se	-8068
bu	-8069
awa	-8070
▁SC	-8071
Char	-8072
Most	-8073
seen	-8074
▁Acc	-8075
▁Air	-8076
▁Bell	-8077
▁Cont	-8078
▁bold	-8079
▁bust	-8080
▁hood	-8081
▁tool	-8082
urance	-8083
▁1950'	-8084
▁Fonda	-8085
▁Point	-8086
▁beast	-8087
▁candy	-8088
▁ranks	-8089
▁slick	-8090
▁stead	-8091
▁venge	-8092
atingly	-8093
▁Jeremy	-8094
▁Summer	-8095
▁darker	-8096
▁advance	-8097
▁dentist	-8098
▁drunken	-8099
▁obscure	-8100
▁poverty	-8101
▁precise	-8102
▁incompet	-8103
redictable	-8104
▁cardboard	-8105
▁philosoph	-8106
▁importance	-8107
▁outrageous	-8108
▁repetitive	-8109
8.	-8110
'.<	-8111
fle	-8112
sex	-8113
▁Gw	-8114
Here	-8115
itar	-8116
rase	-8117
▁pig	-8118
Still	-8119
izard	-8120
shine	-8121
think	-8122
▁Fore	-8123
▁Khan	-8124
▁Kirk	-8125
▁carn	-8126
▁clic	-8127
▁lake	-8128
▁styl	-8129
Robert	-8130
ograph	-8131
▁Blake	-8132
▁Miike	-8133
▁draws	-8134
▁swear	-8135
Despite	-8136
because	-8137
isation	-8138
ketball	-8139
▁Gothic	-8140
▁Pretty	-8141
▁Romero	-8142
▁exchan	-8143
▁misses	-8144
▁premie	-8145
▁Indians	-8146
▁alcohol	-8147
▁popcorn	-8148
▁replace	-8149
▁sadness	-8150
▁uniform	-8151
▁Hamilton	-8152
▁intrigue	-8153
▁precious	-8154
▁response	-8155
▁strictly	-8156
▁westerns	-8157
rehensible	-8158
▁attracted	-8159
▁landscape	-8160
▁psychotic	-8161
▁inevitable	-8162
▁unbearable	-8163
▁commercials	-8164
▁involvement	-8165
▁increasingly	-8166
▁ridiculously	-8167
▁unintentionally	-8168
AIN	-8169
ONG	-8170
Sha	-8171
ado	-8172
cia	-8173
plo	-8174
▁2,	-8175
▁45	-8176
Like	-8177
cont	-8178
gypt	-8179
ione	-8180
nery	-8181
oked	-8182
uite	-8183
uity	-8184
▁Gal	-8185
▁Pur	-8186
▁thr	-8187
eller	-8188
▁Bush	-8189
▁Hind	-8190
▁Made	-8191
▁Ruth	-8192
▁aunt	-8193
▁bott	-8194
▁dict	-8195
▁frag	-8196
▁wake	-8197
hology	-8198
▁Spike	-8199
▁Years	-8200
▁aimed	-8201
▁gotta	-8202
▁threw	-8203
▁Beatty	-8204
▁Denzel	-8205
▁Planet	-8206
▁Turner	-8207
▁conven	-8208
▁estate	-8209
▁sloppy	-8210
▁string	-8211
▁assault	-8212
▁engaged	-8213
▁hunting	-8214
▁opposed	-8215
▁whoever	-8216
▁admitted	-8217
▁superbly	-8218
▁compassion	-8219
▁motivation	-8220
▁competition	-8221
▁individuals	-8222
See	-8223
aki	-8224
▁21	-8225
▁3.	-8226
"...	-8227
Fran	-8228
ipes	-8229
rink	-8230
such	-8231
▁Cro	-8232
▁Mas	-8233
▁McL	-8234
▁Sab	-8235
athan	-8236
cover	-8237
inent	-8238
lines	-8239
▁LOVE	-8240
▁Pick	-8241
▁Stra	-8242
▁chap	-8243
▁corn	-8244
▁dust	-8245
▁embr	-8246
▁nail	-8247
▁push	-8248
▁sill	-8249
▁wrap	-8250
ellers	-8251
handed	-8252
makers	-8253
minded	-8254
ombies	-8255
▁Andre	-8256
▁Roche	-8257
▁areas	-8258
▁blank	-8259
▁illeg	-8260
▁label	-8261
▁raped	-8262
▁wheel	-8263
jointed	-8264
▁Father	-8265
▁antics	-8266
▁immigr	-8267
▁insist	-8268
▁Cameron	-8269
▁briefly	-8270
▁dropped	-8271
▁forgive	-8272
▁hitting	-8273
▁require	-8274
▁website	-8275
istically	-8276
▁occurred	-8277
▁ruthless	-8278
ortunately	-8279
▁conspiracy	-8280
▁convoluted	-8281
▁redemption	-8282
▁subsequent	-8283
▁achievement	-8284
▁astonishing	-8285
▁unwatchable	-8286
CE	-8287
Tom	-8288
ias	-8289
▁Mo	-8290
hour	-8291
lest	-8292
rics	-8293
umsy	-8294
▁Jer	-8295
mares	-8296
opran	-8297
oviet	-8298
plane	-8299
▁1/10	-8300
▁8/10	-8301
▁Fall	-8302
▁beer	-8303
▁maid	-8304
▁pray	-8305
▁rive	-8306
▁root	-8307
venile	-8308
verted	-8309
▁angel	-8310
▁bleak	-8311
▁blows	-8312
▁exhib	-8313
▁nause	-8314
▁rural	-8315
▁sport	-8316
▁stone	-8317
Finally	-8318
spector	-8319
writers	-8320
▁Franco	-8321
▁Lemmon	-8322
▁Return	-8323
▁Season	-8324
▁apolog	-8325
▁cringe	-8326
▁horrid	-8327
▁poison	-8328
▁restra	-8329
▁Hartley	-8330
▁Kenneth	-8331
▁Mystery	-8332
▁helicop	-8333
▁picking	-8334
▁reduced	-8335
▁strikes	-8336
▁displays	-8337
▁narrator	-8338
▁stealing	-8339
▁tortured	-8340
▁overrated	-8341
▁differences	-8342
▁investigation	-8343
la	-8344
ala	-8345
omn	-8346
ram	-8347
cend	-8348
llie	-8349
▁Aks	-8350
▁Kaz	-8351
estic	-8352
▁Edie	-8353
▁size	-8354
▁slim	-8355
Donald	-8356
oubted	-8357
▁NEVER	-8358
▁Revol	-8359
▁River	-8360
▁Video	-8361
▁noble	-8362
▁noise	-8363
▁obser	-8364
▁resur	-8365
▁satir	-8366
related	-8367
▁Korean	-8368
▁burned	-8369
▁engine	-8370
▁enjoys	-8371
▁intent	-8372
umentary	-8373
▁Timothy	-8374
▁absence	-8375
▁acclaim	-8376
▁dignity	-8377
▁logical	-8378
▁outcome	-8379
▁wannabe	-8380
▁allowing	-8381
▁befriend	-8382
▁lifetime	-8383
▁remaining	-8384
▁concerning	-8385
▁discussion	-8386
▁highlights	-8387
▁revelation	-8388
▁comfortable	-8389
▁ingredients	-8390
▁resemblance	-8391
▁aforementioned	-8392
";	-8393
4,	-8394
AND	-8395
OST	-8396
igo	-8397
lik	-8398
elli	-8399
foot	-8400
itle	-8401
love	-8402
mann	-8403
▁/>'	-8404
▁Ele	-8405
▁Gen	-8406
▁Gil	-8407
▁Med	-8408
▁Try	-8409
emark	-8410
maybe	-8411
▁3/10	-8412
▁Berg	-8413
▁Down	-8414
▁Grey	-8415
▁Hank	-8416
▁Kath	-8417
▁Mort	-8418
parent	-8419
school	-8420
uddies	-8421
weight	-8422
▁Craig	-8423
▁Danes	-8424
▁Glenn	-8425
▁Heart	-8426
▁fancy	-8427
▁notes	-8428
▁suits	-8429
Richard	-8430
warming	-8431
▁Davies	-8432
▁Ginger	-8433
▁Hamlet	-8434
▁Juliet	-8435
▁Rather	-8436
▁Sopran	-8437
▁absorb	-8438
▁settle	-8439
▁titled	-8440
SPOILERS	-8441
ographed	-8442
thriller	-8443
▁classes	-8444
▁conserv	-8445
▁demands	-8446
▁ignored	-8447
▁pulling	-8448
▁respond	-8449
▁Lawrence	-8450
▁Mitchell	-8451
▁Polanski	-8452
▁arrested	-8453
▁creation	-8454
▁improved	-8455
▁Francisco	-8456
▁newspaper	-8457
▁producing	-8458
▁resembles	-8459
▁explaining	-8460
▁innovative	-8461
▁performing	-8462
▁blockbuster	-8463
▁unbelievably	-8464
1)	-8465
rah	-8466
...)	-8467
bing	-8468
otal	-8469
thew	-8470
▁Est	-8471
▁Fra	-8472
▁cup	-8473
!!!!!	-8474
fight	-8475
never	-8476
opsis	-8477
uloid	-8478
▁1940	-8479
▁Fool	-8480
▁diff	-8481
▁prev	-8482
ration	-8483
▁Techn	-8484
▁Worst	-8485
▁blast	-8486
▁sales	-8487
▁smoke	-8488
▁steam	-8489
plicity	-8490
▁Dawson	-8491
▁Fisher	-8492
▁Mother	-8493
▁genres	-8494
▁inform	-8495
▁league	-8496
▁relent	-8497
▁worlds	-8498
▁Stiller	-8499
▁cameras	-8500
▁dancers	-8501
▁devoted	-8502
▁exposed	-8503
▁factory	-8504
▁failing	-8505
▁jumping	-8506
▁measure	-8507
▁reached	-8508
▁scratch	-8509
▁stinker	-8510
▁electric	-8511
▁revealing	-8512
▁sacrifice	-8513
▁afterwards	-8514
▁journalist	-8515
▁repeatedly	-8516
▁restaurant	-8517
▁distracting	-8518
▁meaningless	-8519
▁Nevertheless	-8520
4.	-8521
OME	-8522
dri	-8523
ees	-8524
got	-8525
ido	-8526
▁Aw	-8527
▁Ev	-8528
▁Py	-8529
ATCH	-8530
ican	-8531
nels	-8532
oner	-8533
rier	-8534
ruci	-8535
shot	-8536
▁BUT	-8537
▁Dri	-8538
▁HBO	-8539
▁Ing	-8540
▁Kay	-8541
▁lit	-8542
▁web	-8543
agine	-8544
child	-8545
iders	-8546
olves	-8547
uable	-8548
▁Josh	-8549
▁Sold	-8550
▁Stoo	-8551
▁dear	-8552
▁flop	-8553
▁foul	-8554
▁ward	-8555
▁wont	-8556
bidden	-8557
series	-8558
▁Apart	-8559
▁Stars	-8560
▁chain	-8561
▁clues	-8562
▁fatal	-8563
▁rapid	-8564
▁tales	-8565
▁tires	-8566
chester	-8567
▁Dragon	-8568
▁Kapoor	-8569
▁clumsy	-8570
▁daring	-8571
▁devoid	-8572
▁disgra	-8573
▁groups	-8574
▁hunter	-8575
▁liking	-8576
▁observ	-8577
▁Mildred	-8578
▁NOTHING	-8579
▁escaped	-8580
▁loosely	-8581
▁pretend	-8582
▁receive	-8583
▁staying	-8584
▁worried	-8585
▁Margaret	-8586
▁extended	-8587
▁imagined	-8588
▁morality	-8589
▁offended	-8590
▁returned	-8591
▁subjects	-8592
▁elaborate	-8593
▁notorious	-8594
▁providing	-8595
▁disjointed	-8596
▁explosions	-8597
▁futuristic	-8598
▁investigate	-8599
▁proceedings	-8600
vi	-8601
ERE	-8602
▁2)	-8603
anny	-8604
stin	-8605
town	-8606
▁Ext	-8607
▁Nov	-8608
▁Set	-8609
▁ack	-8610
▁gif	-8611
▁jaw	-8612
▁pin	-8613
▁sag	-8614
eping	-8615
funny	-8616
great	-8617
rocod	-8618
▁1960	-8619
▁Bull	-8620
▁Scot	-8621
▁Todd	-8622
▁gimm	-8623
▁nerv	-8624
itched	-8625
itudes	-8626
▁Domin	-8627
▁Miles	-8628
▁Price	-8629
▁chest	-8630
▁fluff	-8631
▁motor	-8632
▁shelf	-8633
▁souls	-8634
▁staff	-8635
▁trade	-8636
enstein	-8637
olutely	-8638
ressive	-8639
▁acknow	-8640
▁demons	-8641
▁lasted	-8642
▁pseudo	-8643
▁rebell	-8644
▁thumbs	-8645
▁unsett	-8646
▁Olivier	-8647
▁Wallace	-8648
▁careers	-8649
▁chances	-8650
▁exploit	-8651
▁kidding	-8652
▁notably	-8653
▁assassin	-8654
▁collabor	-8655
▁imperson	-8656
▁sidekick	-8657
▁describes	-8658
▁reasonable	-8659
▁recognized	-8660
▁countryside	-8661
▁overwhelming	-8662
8,	-8663
fu	-8664
Act	-8665
ERS	-8666
Its	-8667
Sec	-8668
abs	-8669
hil	-8670
oge	-8671
pel	-8672
▁4.	-8673
▁CD	-8674
gger	-8675
imer	-8676
onym	-8677
uart	-8678
▁Arm	-8679
▁Pam	-8680
▁awe	-8681
aware	-8682
irley	-8683
▁Cold	-8684
▁Live	-8685
▁fart	-8686
▁intr	-8687
▁west	-8688
itches	-8689
ixture	-8690
ranged	-8691
▁Jamie	-8692
▁argue	-8693
▁forms	-8694
▁props	-8695
▁winds	-8696
▁exotic	-8697
▁insert	-8698
▁mesmer	-8699
▁nearby	-8700
▁vulgar	-8701
▁Dracula	-8702
▁Winters	-8703
▁bullets	-8704
▁National	-8705
▁bathroom	-8706
▁juvenile	-8707
▁Alexander	-8708
▁Rochester	-8709
▁commented	-8710
▁disturbed	-8711
▁returning	-8712
▁senseless	-8713
▁succeeded	-8714
▁territory	-8715
▁population	-8716
▁threatening	-8717
▁consistently	-8718
40	-8719
7,	-8720
Ge	-8721
abh	-8722
agn	-8723
ruly	-8724
ulci	-8725
▁Kum	-8726
▁Low	-8727
▁bog	-8728
▁gut	-8729
Great	-8730
nered	-8731
ovich	-8732
stage	-8733
▁7/10	-8734
▁Brid	-8735
▁Harr	-8736
▁Iraq	-8737
▁Line	-8738
▁Soph	-8739
▁alas	-8740
▁ears	-8741
▁sadd	-8742
atures	-8743
cience	-8744
icient	-8745
tering	-8746
▁Emily	-8747
▁Karen	-8748
▁audio	-8749
▁bears	-8750
▁coach	-8751
▁pitch	-8752
▁shine	-8753
▁trend	-8754
ctional	-8755
▁Maggie	-8756
▁Soviet	-8757
▁combat	-8758
▁devast	-8759
▁dozens	-8760
▁glamor	-8761
▁partly	-8762
▁throat	-8763
▁tracks	-8764
ifferent	-8765
ommended	-8766
oubtedly	-8767
▁drawing	-8768
▁highest	-8769
▁inhabit	-8770
▁politic	-8771
▁portion	-8772
▁selling	-8773
▁affected	-8774
▁backdrop	-8775
▁distance	-8776
▁metaphor	-8777
▁misunder	-8778
▁offering	-8779
▁philosophy	-8780
▁thoughtful	-8781
▁backgrounds	-8782
ORE	-8783
aux	-8784
box	-8785
▁UN	-8786
????	-8787
ptic	-8788
▁FOR	-8789
▁Han	-8790
▁McD	-8791
▁Pot	-8792
▁avo	-8793
▁fed	-8794
Other	-8795
amera	-8796
water	-8797
▁Mupp	-8798
▁asse	-8799
▁gamb	-8800
▁grab	-8801
▁iron	-8802
▁odds	-8803
▁tall	-8804
▁thru	-8805
▁user	-8806
hattan	-8807
uddled	-8808
▁Field	-8809
▁Ollie	-8810
▁Tommy	-8811
▁Ultim	-8812
▁nephe	-8813
ossibly	-8814
▁arrive	-8815
▁endure	-8816
▁errors	-8817
▁scheme	-8818
▁staged	-8819
▁sticks	-8820
▁Madonna	-8821
▁Swedish	-8822
▁avoided	-8823
▁blatant	-8824
▁causing	-8825
▁encoura	-8826
▁excruci	-8827
▁hideous	-8828
▁mixture	-8829
▁reaches	-8830
▁removed	-8831
▁vicious	-8832
▁adequate	-8833
▁clothing	-8834
▁abilities	-8835
▁dialogues	-8836
▁formulaic	-8837
▁gradually	-8838
▁illogical	-8839
▁mountains	-8840
▁trademark	-8841
▁implausible	-8842
5)	-8843
6)	-8844
Am	-8845
Lu	-8846
SS	-8847
Com	-8848
gal	-8849
gle	-8850
hum	-8851
iar	-8852
run	-8853
vez	-8854
was	-8855
zer	-8856
Look	-8857
assy	-8858
ccer	-8859
oral	-8860
ping	-8861
gling	-8862
lands	-8863
obody	-8864
▁Arab	-8865
▁Garb	-8866
▁Hung	-8867
▁Hunt	-8868
▁Know	-8869
▁Nice	-8870
▁Ross	-8871
▁pays	-8872
▁whim	-8873
▁Egypt	-8874
▁Greek	-8875
▁Rings	-8876
▁mouse	-8877
▁piano	-8878
▁Harvey	-8879
▁Warren	-8880
▁adoles	-8881
▁albeit	-8882
▁finger	-8883
▁harder	-8884
▁houses	-8885
▁maniac	-8886
▁passes	-8887
▁relies	-8888
▁robots	-8889
▁silver	-8890
▁styles	-8891
▁unfair	-8892
▁Sellers	-8893
▁abysmal	-8894
▁digital	-8895
▁directs	-8896
▁distant	-8897
▁screams	-8898
▁unfolds	-8899
▁cheating	-8900
▁sadistic	-8901
▁symbolism	-8902
▁horrifying	-8903
▁influenced	-8904
▁Considering	-8905
,<	-8906
pr	-8907
ARD	-8908
obs	-8909
tta	-8910
unn	-8911
wan	-8912
▁AW	-8913
ffee	-8914
ushi	-8915
▁Ian	-8916
▁Pie	-8917
▁bin	-8918
▁sus	-8919
awful	-8920
eling	-8921
hobic	-8922
oples	-8923
phant	-8924
▁Duke	-8925
▁Make	-8926
▁Shaw	-8927
▁blew	-8928
▁tame	-8929
▁urge	-8930
altrow	-8931
estyle	-8932
imated	-8933
ingers	-8934
▁Adams	-8935
▁EVERY	-8936
▁aging	-8937
▁cliff	-8938
▁glory	-8939
▁hates	-8940
leading	-8941
ocative	-8942
▁Craven	-8943
▁Except	-8944
▁Legend	-8945
▁french	-8946
▁humili	-8947
▁suited	-8948
▁uneven	-8949
▁Granted	-8950
▁Vampire	-8951
▁benefit	-8952
▁justify	-8953
▁kitchen	-8954
▁secrets	-8955
▁stellar	-8956
▁topless	-8957
ventually	-8958
▁adorable	-8959
▁detailed	-8960
▁enormous	-8961
▁goodness	-8962
▁inferior	-8963
▁Nicholson	-8964
▁celluloid	-8965
▁dedicated	-8966
▁dinosaurs	-8967
▁financial	-8968
▁performer	-8969
▁scientific	-8970
▁conventional	-8971
▁unintentional	-8972
Gra	-8973
bed	-8974
cop	-8975
lad	-8976
ryn	-8977
▁Pu	-8978
aval	-8979
burn	-8980
cean	-8981
llen	-8982
otte	-8983
ours	-8984
then	-8985
▁SNL	-8986
▁bes	-8987
▁dud	-8988
▁dys	-8989
brick	-8990
check	-8991
ental	-8992
▁Supp	-8993
▁cats	-8994
▁ease	-8995
▁gall	-8996
▁jazz	-8997
▁plat	-8998
▁sand	-8999
▁tail	-9000
izable	-9001
▁April	-9002
▁Mario	-9003
▁Right	-9004
▁Whoop	-9005
▁amuse	-9006
▁curse	-9007
▁oddly	-9008
▁slave	-9009
▁Unless	-9010
▁brains	-9011
▁fortun	-9012
▁hatred	-9013
▁headed	-9014
▁hypnot	-9015
▁monkey	-9016
▁notion	-9017
▁prejud	-9018
▁stress	-9019
▁Angeles	-9020
▁Florida	-9021
▁Paltrow	-9022
▁Strange	-9023
▁Whether	-9024
▁buddies	-9025
▁dynamic	-9026
▁horrors	-9027
▁motives	-9028
▁smaller	-9029
▁Princess	-9030
▁birthday	-9031
▁coherent	-9032
▁composed	-9033
▁troubles	-9034
▁affection	-9035
▁currently	-9036
▁decisions	-9037
▁displayed	-9038
▁explosion	-9039
▁miserable	-9040
▁movements	-9041
▁nostalgic	-9042
▁satisfied	-9043
▁stereotype	-9044
▁desperation	-9045
▁conversations	-9046
▁embarrassment	-9047
Mur	-9048
▁RE	-9049
▁je	-9050
aith	-9051
lers	-9052
ourt	-9053
ptly	-9054
unts	-9055
wind	-9056
▁Hey	-9057
▁Row	-9058
▁bew	-9059
▁ego	-9060
▁mic	-9061
▁wis	-9062
Night	-9063
about	-9064
alley	-9065
chest	-9066
forms	-9067
▁Gund	-9068
▁Iron	-9069
▁Lots	-9070
▁Macy	-9071
▁Peck	-9072
▁cens	-9073
▁sarc	-9074
▁shel	-9075
atched	-9076
icking	-9077
movies	-9078
rowing	-9079
ularly	-9080
wright	-9081
▁Enjoy	-9082
▁GREAT	-9083
▁Hills	-9084
▁Shell	-9085
▁Worth	-9086
▁conve	-9087
▁disli	-9088
▁gloss	-9089
▁grasp	-9090
▁hints	-9091
▁indul	-9092
▁lackl	-9093
▁recru	-9094
▁trees	-9095
▁Grinch	-9096
▁Julian	-9097
▁Murder	-9098
▁Walker	-9099
▁admira	-9100
▁banned	-9101
▁builds	-9102
▁bullet	-9103
▁collap	-9104
▁fooled	-9105
▁patter	-9106
▁wished	-9107
aneously	-9108
▁Further	-9109
▁Jeffrey	-9110
▁captain	-9111
▁compens	-9112
▁illness	-9113
▁shadows	-9114
▁Brooklyn	-9115
▁Remember	-9116
▁recorded	-9117
▁synopsis	-9118
▁unsatisf	-9119
▁Godfather	-9120
▁authority	-9121
▁depressed	-9122
▁transport	-9123
▁artificial	-9124
▁introduces	-9125
▁simplistic	-9126
▁frustration	-9127
▁nevertheless	-9128
▁International	-9129
▁transformation	-9130
Dr	-9131
MA	-9132
pol	-9133
▁Kr	-9134
▁RO	-9135
▁TR	-9136
mill	-9137
▁/>8	-9138
▁Aff	-9139
▁Vis	-9140
▁anx	-9141
▁cig	-9142
▁tad	-9143
udden	-9144
▁(195	-9145
▁Code	-9146
▁Eyre	-9147
▁Luci	-9148
▁Song	-9149
▁bone	-9150
▁sail	-9151
▁sett	-9152
cingly	-9153
▁Alien	-9154
▁Donna	-9155
▁Times	-9156
▁Woods	-9157
▁awake	-9158
▁beats	-9159
▁filth	-9160
▁forty	-9161
▁hurts	-9162
▁inane	-9163
▁shoes	-9164
▁Castle	-9165
▁golden	-9166
▁handed	-9167
▁lyrics	-9168
▁outfit	-9169
********	-9170
▁Bergman	-9171
▁Kennedy	-9172
▁Simpson	-9173
▁endings	-9174
▁funeral	-9175
▁guessed	-9176
▁smoking	-9177
▁ignorant	-9178
▁sentence	-9179
▁tiresome	-9180
▁companion	-9181
▁guarantee	-9182
▁lifestyle	-9183
▁purchased	-9184
▁terrorist	-9185
▁interaction	-9186
▁motivations	-9187
▁represented	-9188
▁translation	-9189
HA	-9190
Che	-9191
ipe	-9192
wen	-9193
zen	-9194
▁Ca	-9195
▁OR	-9196
born	-9197
ello	-9198
ieve	-9199
issa	-9200
prov	-9201
▁Hat	-9202
▁mal	-9203
▁ups	-9204
▁wet	-9205
James	-9206
chers	-9207
emies	-9208
fined	-9209
inder	-9210
itled	-9211
onica	-9212
orney	-9213
unior	-9214
▁Fish	-9215
▁acid	-9216
▁trio	-9217
isters	-9218
▁Block	-9219
▁Fulci	-9220
▁Linda	-9221
▁Stall	-9222
▁bless	-9223
▁chess	-9224
▁inapp	-9225
▁nurse	-9226
▁spare	-9227
▁storm	-9228
▁Mickey	-9229
▁Voight	-9230
▁catchy	-9231
▁chased	-9232
▁demand	-9233
▁fantas	-9234
▁models	-9235
▁orders	-9236
▁specif	-9237
▁trashy	-9238
▁waited	-9239
▁Belushi	-9240
▁Farrell	-9241
▁Gabriel	-9242
▁Ireland	-9243
▁catches	-9244
▁diamond	-9245
▁liberal	-9246
▁primary	-9247
▁travels	-9248
▁Robinson	-9249
▁explored	-9250
▁purchase	-9251
▁relation	-9252
▁suitable	-9253
ploitation	-9254
▁Certainly	-9255
▁alcoholic	-9256
▁education	-9257
▁murderous	-9258
▁possessed	-9259
▁provoking	-9260
▁traveling	-9261
▁yesterday	-9262
▁transition	-9263
▁unsettling	-9264
')	-9265
Te	-9266
sa	-9267
ATE	-9268
izz	-9269
obi	-9270
ori	-9271
▁3-	-9272
▁Ju	-9273
icia	-9274
numb	-9275
uinn	-9276
▁Jen	-9277
▁wow	-9278
agues	-9279
angel	-9280
anson	-9281
zilla	-9282
▁Bald	-9283
▁Band	-9284
▁Cuba	-9285
▁Hick	-9286
▁Hist	-9287
▁Niro	-9288
▁Roth	-9289
▁Shah	-9290
▁mall	-9291
▁outs	-9292
▁tang	-9293
▁util	-9294
vation	-9295
▁Annie	-9296
▁Blond	-9297
▁Dixon	-9298
▁Garbo	-9299
▁Nazis	-9300
▁Palma	-9301
▁Terry	-9302
▁Vegas	-9303
▁bands	-9304
▁doors	-9305
▁stabb	-9306
▁stole	-9307
charact	-9308
ensions	-9309
retched	-9310
▁Bakshi	-9311
▁Gadget	-9312
▁Seeing	-9313
▁Series	-9314
▁Streep	-9315
▁coffee	-9316
▁desired	-9317
▁montage	-9318
▁nervous	-9319
▁schlock	-9320
▁stilted	-9321
▁downhill	-9322
▁hopeless	-9323
▁Inspector	-9324
▁contained	-9325
▁gangsters	-9326
▁immensely	-9327
▁inventive	-9328
▁altogether	-9329
▁developing	-9330
▁prostitute	-9331
▁dimensional	-9332
▁politically	-9333
▁possibilities	-9334
Em	-9335
Go	-9336
ca	-9337
ahl	-9338
hos	-9339
irs	-9340
tti	-9341
▁Ly	-9342
▁PR	-9343
gren	-9344
idal	-9345
issy	-9346
oose	-9347
▁Bud	-9348
▁Doc	-9349
▁Got	-9350
▁LOT	-9351
▁ONE	-9352
▁WAS	-9353
▁tie	-9354
▁tos	-9355
▁wig	-9356
aglen	-9357
ecess	-9358
istan	-9359
white	-9360
▁Craw	-9361
▁Days	-9362
▁Hurt	-9363
▁Joey	-9364
▁Read	-9365
▁Sept	-9366
▁icon	-9367
▁publ	-9368
▁stro	-9369
ceived	-9370
ulsive	-9371
▁Diana	-9372
▁flies	-9373
▁loads	-9374
▁porno	-9375
▁sappy	-9376
▁shirt	-9377
▁thugs	-9378
athetic	-9379
▁Hopper	-9380
▁Spirit	-9381
▁advise	-9382
▁candid	-9383
▁corpse	-9384
▁damage	-9385
▁racial	-9386
▁Century	-9387
▁lengthy	-9388
▁surpass	-9389
▁Griffith	-9390
▁machines	-9391
▁riveting	-9392
▁sacrific	-9393
▁splatter	-9394
▁establish	-9395
▁fundament	-9396
▁predecess	-9397
▁consistent	-9398
▁nightmares	-9399
▁nomination	-9400
▁challenging	-9401
UM	-9402
Bas	-9403
Hey	-9404
aws	-9405
bet	-9406
▁CA	-9407
▁Op	-9408
OULD	-9409
Than	-9410
avia	-9411
bbed	-9412
iper	-9413
orky	-9414
osey	-9415
▁/>7	-9416
▁Cho	-9417
▁Ven	-9418
▁pad	-9419
▁sab	-9420
▁sen	-9421
▁sup	-9422
▁upl	-9423
oured	-9424
uracy	-9425
▁(193	-9426
▁Elli	-9427
▁ONLY	-9428
▁Plot	-9429
▁Scro	-9430
▁Ward	-9431
▁mund	-9432
▁peak	-9433
▁plod	-9434
Please	-9435
antino	-9436
ribute	-9437
stinov	-9438
strong	-9439
▁Actor	-9440
▁Claus	-9441
▁Jenny	-9442
▁Loren	-9443
▁Myers	-9444
▁guide	-9445
▁pride	-9446
▁signs	-9447
▁south	-9448
▁tunes	-9449
ivalent	-9450
otesque	-9451
perfect	-9452
▁Bacall	-9453
▁agents	-9454
▁cliche	-9455
▁custom	-9456
▁kicked	-9457
▁orphan	-9458
▁photos	-9459
▁plight	-9460
▁scores	-9461
▁Chamber	-9462
▁Shirley	-9463
▁abusive	-9464
▁engross	-9465
▁generic	-9466
▁illegal	-9467
▁surfing	-9468
▁suspend	-9469
▁practice	-9470
▁conflicts	-9471
▁nostalgia	-9472
▁Characters	-9473
▁psychopath	-9474
▁simplicity	-9475
▁possibility	-9476
▁similarities	-9477
"!	-9478
Ang	-9479
ESS	-9480
God	-9481
obb	-9482
)...	-9483
amer	-9484
inne	-9485
pion	-9486
pled	-9487
umin	-9488
▁Meg	-9489
▁Pen	-9490
▁aid	-9491
Black	-9492
based	-9493
iably	-9494
▁4/10	-9495
▁Fant	-9496
▁GOOD	-9497
▁Hugh	-9498
▁Kyle	-9499
▁Talk	-9500
▁Thus	-9501
▁calm	-9502
▁dazz	-9503
▁echo	-9504
▁excl	-9505
▁heat	-9506
▁mile	-9507
▁trav	-9508
▁wore	-9509
abrina	-9510
ivable	-9511
ousing	-9512
▁1970'	-9513
▁Dutch	-9514
▁Lumet	-9515
▁cards	-9516
▁drops	-9517
▁equip	-9518
▁monot	-9519
pecting	-9520
▁absent	-9521
▁bottle	-9522
▁dating	-9523
▁dreary	-9524
▁dysfun	-9525
▁heroic	-9526
▁quotes	-9527
▁resear	-9528
▁severe	-9529
▁soccer	-9530
▁undert	-9531
▁useful	-9532
▁Germans	-9533
▁Neither	-9534
▁Stevens	-9535
▁bargain	-9536
▁dismiss	-9537
▁divorce	-9538
▁enemies	-9539
▁Jonathan	-9540
▁focusing	-9541
▁glorious	-9542
▁officers	-9543
▁secretly	-9544
▁subtlety	-9545
▁valuable	-9546
ropriately	-9547
▁Manhattan	-9548
▁corruption	-9549
▁progresses	-9550
▁remarkably	-9551
▁thankfully	-9552
▁Fortunately	-9553
▁disappeared	-9554
▁appreciation	-9555
▁cinematographer	-9556
bi	-9557
lex	-9558
oby	-9559
▁7.	-9560
acle	-9561
acts	-9562
felt	-9563
odes	-9564
orus	-9565
quer	-9566
THING	-9567
aying	-9568
azing	-9569
every	-9570
maker	-9571
▁Burg	-9572
▁Call	-9573
▁Dawn	-9574
▁Doll	-9575
▁buck	-9576
▁lord	-9577
▁mate	-9578
▁riot	-9579
▁sham	-9580
▁toys	-9581
▁twin	-9582
astern	-9583
everal	-9584
▁Force	-9585
▁Human	-9586
▁crush	-9587
▁hence	-9588
▁overt	-9589
▁reads	-9590
▁shodd	-9591
▁Gerard	-9592
▁agrees	-9593
▁closet	-9594
▁copies	-9595
▁dances	-9596
▁defeat	-9597
▁doomed	-9598
▁engage	-9599
▁faults	-9600
▁jumped	-9601
▁suspic	-9602
rocodile	-9603
▁Cassidy	-9604
▁Connery	-9605
▁Theater	-9606
▁Thunder	-9607
▁Titanic	-9608
▁bedroom	-9609
▁beliefs	-9610
▁burning	-9611
▁combine	-9612
▁instant	-9613
▁painted	-9614
▁persons	-9615
▁remarks	-9616
▁silence	-9617
▁staring	-9618
▁Honestly	-9619
▁disgrace	-9620
▁emphasis	-9621
▁hardcore	-9622
▁showcase	-9623
▁Wonderful	-9624
▁buildings	-9625
▁dimension	-9626
▁discovery	-9627
▁mysteries	-9628
▁realizing	-9629
▁seventies	-9630
▁complexity	-9631
▁delivering	-9632
▁passionate	-9633
▁terrorists	-9634
▁deliberately	-9635
▁philosophical	-9636
Ke	-9637
po	-9638
esc	-9639
mel	-9640
ctic	-9641
eryl	-9642
eyed	-9643
fast	-9644
fety	-9645
lins	-9646
ysis	-9647
▁/>2	-9648
▁Boo	-9649
▁Bow	-9650
▁Doo	-9651
▁Fro	-9652
▁Rad	-9653
▁Sub	-9654
▁Top	-9655
▁Uwe	-9656
▁arc	-9657
arrow	-9658
quest	-9659
▁Cary	-9660
▁Luck	-9661
▁Marc	-9662
▁gest	-9663
▁pale	-9664
▁sung	-9665
braham	-9666
ilarly	-9667
ilight	-9668
▁Brady	-9669
▁Edgar	-9670
▁colon	-9671
▁hyper	-9672
▁ninet	-9673
▁optim	-9674
▁photo	-9675
▁recon	-9676
jection	-9677
likable	-9678
mission	-9679
▁Amanda	-9680
▁Berlin	-9681
▁Gundam	-9682
▁Norman	-9683
▁Rooney	-9684
▁earned	-9685
▁humble	-9686
▁incest	-9687
▁intric	-9688
▁lately	-9689
▁messed	-9690
▁safety	-9691
▁taught	-9692
▁unexpl	-9693
▁SPOILER	-9694
▁Ustinov	-9695
▁applaud	-9696
▁awfully	-9697
▁cheated	-9698
▁claimed	-9699
▁contrad	-9700
▁designs	-9701
▁honesty	-9702
▁satisfy	-9703
▁vaguely	-9704
▁whereas	-9705
▁Richards	-9706
▁arrogant	-9707
▁brutally	-9708
▁eighties	-9709
▁promised	-9710
▁executive	-9711
▁witnessed	-9712
▁undoubtedly	-9713
▁questionable	-9714
"-	-9715
..<	-9716
aph	-9717
chi	-9718
put	-9719
!!!<	-9720
High	-9721
aled	-9722
amin	-9723
hell	-9724
mail	-9725
main	-9726
▁Cab	-9727
▁Dee	-9728
▁Dow	-9729
▁Hag	-9730
▁Mol	-9731
▁fog	-9732
actor	-9733
again	-9734
angle	-9735
leans	-9736
▁Boys	-9737
▁Chic	-9738
▁blur	-9739
▁glor	-9740
▁purs	-9741
▁unst	-9742
icolor	-9743
ixties	-9744
radine	-9745
▁Chase	-9746
▁Close	-9747
▁Damon	-9748
▁buffs	-9749
▁clock	-9750
▁grate	-9751
▁habit	-9752
▁instr	-9753
▁pants	-9754
▁stark	-9755
▁thief	-9756
▁button	-9757
▁casual	-9758
▁divers	-9759
▁global	-9760
▁instit	-9761
▁treats	-9762
▁warmth	-9763
▁aggress	-9764
▁weakest	-9765
▁McLaglen	-9766
▁Virginia	-9767
▁partners	-9768
▁polished	-9769
▁reaching	-9770
▁subplots	-9771
▁swimming	-9772
▁wretched	-9773
▁capturing	-9774
▁suspicious	-9775
▁potentially	-9776
▁considerable	-9777
▁convincingly	-9778
ACK	-9779
Ser	-9780
did	-9781
fly	-9782
thm	-9783
▁Cy	-9784
▁ya	-9785
Once	-9786
elic	-9787
esis	-9788
leck	-9789
rehe	-9790
umbo	-9791
vice	-9792
vity	-9793
▁9/1	-9794
▁Amy	-9795
▁Leo	-9796
▁Sex	-9797
▁pir	-9798
acked	-9799
andra	-9800
force	-9801
isand	-9802
leton	-9803
onson	-9804
ormal	-9805
ovsky	-9806
peror	-9807
▁Dill	-9808
▁Face	-9809
▁REAL	-9810
▁Save	-9811
▁Wolf	-9812
▁bird	-9813
▁poem	-9814
▁rein	-9815
Second	-9816
ifully	-9817
▁Diane	-9818
▁Dirty	-9819
▁Dolph	-9820
▁Drake	-9821
▁Jesse	-9822
▁Phant	-9823
▁Spock	-9824
▁Trans	-9825
▁analy	-9826
▁chaos	-9827
▁legal	-9828
▁moody	-9829
▁rooms	-9830
▁seeks	-9831
Perhaps	-9832
uration	-9833
▁Angela	-9834
▁Graham	-9835
▁Paulie	-9836
▁behave	-9837
▁losers	-9838
▁lowest	-9839
▁Monster	-9840
▁Scrooge	-9841
▁Usually	-9842
▁arrived	-9843
▁chooses	-9844
▁couples	-9845
▁depicts	-9846
▁prequel	-9847
▁smiling	-9848
▁wrapped	-9849
astically	-9850
▁Campbell	-9851
▁Southern	-9852
▁channels	-9853
▁demented	-9854
▁helpless	-9855
▁isolated	-9856
▁survival	-9857
▁survived	-9858
▁trailers	-9859
▁Barrymore	-9860
▁celebrity	-9861
▁compelled	-9862
▁equipment	-9863
▁grotesque	-9864
▁household	-9865
▁interrupt	-9866
▁helicopter	-9867
▁understated	-9868
Two	-9869
car	-9870
hai	-9871
▁MY	-9872
▁Sa	-9873
club	-9874
cult	-9875
eged	-9876
mons	-9877
▁Sen	-9878
▁WHY	-9879
▁fee	-9880
▁fro	-9881
▁pub	-9882
▁Antw	-9883
▁Less	-9884
▁Mach	-9885
▁Rich	-9886
▁Year	-9887
▁duty	-9888
▁edit	-9889
▁glim	-9890
▁nerd	-9891
▁priv	-9892
icable	-9893
master	-9894
thello	-9895
▁/>***	-9896
▁Based	-9897
▁Holly	-9898
▁Women	-9899
▁hench	-9900
▁newly	-9901
▁recyc	-9902
▁shake	-9903
▁swall	-9904
ormally	-9905
▁Dalton	-9906
▁Peters	-9907
▁condem	-9908
▁exquis	-9909
▁faster	-9910
▁nephew	-9911
▁resort	-9912
▁solely	-9913
▁spring	-9914
▁stinks	-9915
▁widely	-9916
▁Kubrick	-9917
▁Matthew	-9918
▁Scarlet	-9919
▁Somehow	-9920
▁amounts	-9921
▁centers	-9922
▁methods	-9923
▁mundane	-9924
▁planned	-9925
▁shortly	-9926
▁spirits	-9927
▁trained	-9928
▁Crawford	-9929
▁assigned	-9930
▁cannibal	-9931
▁contempl	-9932
▁distingu	-9933
▁opinions	-9934
▁paranoia	-9935
▁patients	-9936
▁Carradine	-9937
▁attitudes	-9938
▁Richardson	-9939
▁fascinated	-9940
▁vulnerable	-9941
▁advertising	-9942
▁construction	-9943
▁understandable	-9944
!,	-9945
-)	-9946
7)	-9947
HO	-9948
!!<	-9949
His	-9950
dog	-9951
guy	-9952
▁Ka	-9953
▁Ok	-9954
alsh	-9955
aser	-9956
lake	-9957
offs	-9958
▁---	-9959
▁/>3	-9960
▁Eye	-9961
▁Jed	-9962
▁Mey	-9963
▁WAY	-9964
▁poo	-9965
iners	-9966
▁9/10	-9967
▁Five	-9968
▁Gore	-9969
▁Hyde	-9970
▁List	-9971
▁Lund	-9972
▁Penn	-9973
▁Shar	-9974
▁dism	-9975
▁quit	-9976
▁vibr	-9977
▁warr	-9978
▁whis	-9979
actors	-9980
▁Aside	-9981
▁Civil	-9982
▁Latin	-9983
▁Novak	-9984
▁Pearl	-9985
▁album	-9986
▁irres	-9987
▁Alfred	-9988
▁Cowboy	-9989
▁Justin	-9990
▁Nathan	-9991
▁Raines	-9992
▁Rating	-9993
▁Willis	-9994
▁agreed	-9995
▁dragon	-9996
▁elimin	-9997
▁halluc	-9998
▁visits	-9999
▁wisdom	-10000
▁writes	-10001
▁Chicago	-10002
▁Imagine	-10003
▁Shelley	-10004
▁closest	-10005
▁fighter	-10006
▁foolish	-10007
▁kicking	-10008
▁parties	-10009
▁sincere	-10010
▁unhappy	-10011
▁yelling	-10012
Hollywood	-10013
conscious	-10014
▁Scotland	-10015
▁advanced	-10016
▁intimate	-10017
▁parallel	-10018
▁southern	-10019
▁travesty	-10020
▁viewings	-10021
▁classical	-10022
▁excessive	-10023
▁plausible	-10024
▁primarily	-10025
▁principal	-10026
▁relatives	-10027
▁rendition	-10028
▁slaughter	-10029
▁vengeance	-10030
▁witnesses	-10031
▁Absolutely	-10032
▁destroying	-10033
▁equivalent	-10034
▁underlying	-10035
▁unoriginal	-10036
▁constructed	-10037
▁recognition	-10038
▁distribution	-10039
▁choreographed	-10040
▁revolutionary	-10041
9)	-10042
Br	-10043
DS	-10044
INE	-10045
big	-10046
iti	-10047
lem	-10048
sur	-10049
▁35	-10050
▁Ah	-10051
▁BA	-10052
▁FR	-10053
▁Ur	-10054
ange	-10055
arse	-10056
bury	-10057
llow	-10058
ntil	-10059
orse	-10060
otta	-10061
rien	-10062
sect	-10063
uaid	-10064
xton	-10065
▁SEE	-10066
▁san	-10067
▁voy	-10068
House	-10069
ansas	-10070
bbing	-10071
icism	-10072
ighty	-10073
itual	-10074
tends	-10075
▁(194	-10076
▁(196	-10077
▁3000	-10078
▁Cart	-10079
▁Case	-10080
▁Comb	-10081
▁Dais	-10082
▁Eyes	-10083
▁Hood	-10084
▁awak	-10085
▁baff	-10086
▁cake	-10087
▁indu	-10088
▁punk	-10089
▁rage	-10090
▁rude	-10091
▁sits	-10092
▁Break	-10093
▁Damme	-10094
▁Given	-10095
▁Rambo	-10096
▁bonus	-10097
▁eaten	-10098
▁meand	-10099
▁scope	-10100
▁spoke	-10101
SPOILER	-10102
▁Akshay	-10103
▁Carrie	-10104
▁Willie	-10105
▁cities	-10106
▁greedy	-10107
▁guitar	-10108
▁misery	-10109
▁morbid	-10110
▁online	-10111
▁poetic	-10112
▁rubber	-10113
▁temper	-10114
▁versus	-10115
▁Fiction	-10116
▁Profess	-10117
▁Robbins	-10118
▁Special	-10119
▁empathy	-10120
▁minimum	-10121
▁monolog	-10122
▁robbery	-10123
▁unaware	-10124
▁witches	-10125
▁Scottish	-10126
▁catching	-10127
▁floating	-10128
▁instinct	-10129
▁property	-10130
▁Beautiful	-10131
▁corporate	-10132
▁correctly	-10133
▁laughably	-10134
▁masterful	-10135
▁accomplish	-10136
▁creativity	-10137
▁mentioning	-10138
▁presumably	-10139
▁pretending	-10140
▁punishment	-10141
▁hilariously	-10142
▁exceptionally	-10143
▁unpredictable	-10144
▁responsibility	-10145
8)	-10146
AW	-10147
La	-10148
IDS	-10149
THE	-10150
eta	-10151
pha	-10152
ukh	-10153
▁Kl	-10154
Very	-10155
aman	-10156
ells	-10157
free	-10158
iley	-10159
irts	-10160
lymp	-10161
onto	-10162
zard	-10163
zing	-10164
▁Bay	-10165
▁DON	-10166
▁Dud	-10167
▁Fan	-10168
▁Jet	-10169
▁Pay	-10170
▁Pig	-10171
▁Viv	-10172
Avoid	-10173
burne	-10174
drama	-10175
faced	-10176
indul	-10177
oning	-10178
uries	-10179
▁Hack	-10180
▁Judy	-10181
▁Mind	-10182
▁Owen	-10183
▁cure	-10184
▁dirt	-10185
▁fabr	-10186
▁obst	-10187
▁rush	-10188
▁stir	-10189
Though	-10190
imagin	-10191
▁Molly	-10192
▁Orson	-10193
▁Posey	-10194
▁WATCH	-10195
▁Walsh	-10196
▁dreck	-10197
▁exped	-10198
▁grass	-10199
▁indic	-10200
▁stale	-10201
▁unden	-10202
austrop	-10203
▁Action	-10204
▁Scream	-10205
▁Whoopi	-10206
▁awhile	-10207
▁behold	-10208
▁closed	-10209
▁demean	-10210
▁facing	-10211
▁joined	-10212
▁poetry	-10213
▁rocket	-10214
▁worker	-10215
▁Dickens	-10216
▁beneath	-10217
▁commend	-10218
▁elegant	-10219
▁granted	-10220
▁visible	-10221
▁wishing	-10222
developed	-10223
▁frequent	-10224
▁function	-10225
▁patience	-10226
▁alternate	-10227
▁conceived	-10228
▁introduce	-10229
▁marketing	-10230
▁resources	-10231
▁silliness	-10232
▁supported	-10233
▁tasteless	-10234
▁wrestling	-10235
▁irrelevant	-10236
▁popularity	-10237
▁businessman	-10238
▁experiments	-10239
▁manipulative	-10240
▁masterpieces	-10241
Or	-10242
-19	-10243
Her	-10244
OUS	-10245
bby	-10246
fan	-10247
gia	-10248
olk	-10249
viv	-10250
▁BS	-10251
acks	-10252
make	-10253
reet	-10254
will	-10255
▁CAN	-10256
▁NYC	-10257
▁dod	-10258
▁lun	-10259
▁ren	-10260
▁rum	-10261
annah	-10262
front	-10263
inity	-10264
▁Bela	-10265
▁Biko	-10266
▁June	-10267
▁STAR	-10268
▁Town	-10269
▁boun	-10270
▁furn	-10271
▁surg	-10272
▁tank	-10273
▁ties	-10274
headed	-10275
▁Ellen	-10276
▁Girls	-10277
▁Vance	-10278
▁legit	-10279
▁maint	-10280
▁persu	-10281
▁ruins	-10282
▁tripe	-10283
▁wacky	-10284
borough	-10285
ensical	-10286
issance	-10287
ructive	-10288
▁Ashley	-10289
▁Brazil	-10290
▁Carell	-10291
▁Downey	-10292
▁Malone	-10293
▁Russia	-10294
▁assemb	-10295
▁chicks	-10296
▁gifted	-10297
▁inject	-10298
▁limits	-10299
▁ritual	-10300
▁winter	-10301
ulations	-10302
▁Abraham	-10303
▁Baldwin	-10304
▁Hopkins	-10305
▁Several	-10306
▁Stooges	-10307
▁letters	-10308
▁muddled	-10309
▁stunned	-10310
▁Basinger	-10311
▁attorney	-10312
▁passable	-10313
▁stumbled	-10314
▁fashioned	-10315
▁integrity	-10316
▁neighbors	-10317
▁stretched	-10318
▁Eventually	-10319
▁Throughout	-10320
▁University	-10321
▁lackluster	-10322
▁overacting	-10323
▁exploration	-10324
▁conservative	-10325
▁intentionally	-10326
▁opportunities	-10327
4)	-10328
PS	-10329
kel	-10330
nat	-10331
rum	-10332
eder	-10333
essa	-10334
oria	-10335
ripp	-10336
rome	-10337
ylum	-10338
▁Cou	-10339
▁MTV	-10340
▁Nin	-10341
▁Rex	-10342
▁aka	-10343
▁map	-10344
apers	-10345
arity	-10346
arrel	-10347
oiled	-10348
ravel	-10349
▁....	-10350
▁/>10	-10351
▁Amit	-10352
▁Gwyn	-10353
▁Jord	-10354
▁Walt	-10355
▁bugs	-10356
▁fren	-10357
▁milk	-10358
▁unit	-10359
▁wing	-10360
Brazil	-10361
amount	-10362
illian	-10363
inding	-10364
ourney	-10365
▁*****	-10366
▁Ethan	-10367
▁Funny	-10368
▁Mount	-10369
▁Nicol	-10370
▁Wells	-10371
▁bread	-10372
▁campa	-10373
▁jewel	-10374
▁obliv	-10375
▁phony	-10376
▁tomat	-10377
▁tooth	-10378
William	-10379
ference	-10380
venture	-10381
▁Argent	-10382
▁Louise	-10383
▁Newman	-10384
▁Origin	-10385
▁Waters	-10386
▁detect	-10387
▁fought	-10388
▁lively	-10389
▁simult	-10390
▁square	-10391
izations	-10392
▁Orleans	-10393
▁careful	-10394
▁checked	-10395
▁leaders	-10396
▁matches	-10397
▁tonight	-10398
prisingly	-10399
▁cleverly	-10400
▁performs	-10401
▁proceeds	-10402
▁realised	-10403
▁releases	-10404
▁waitress	-10405
▁September	-10406
▁Tarantino	-10407
▁comparing	-10408
▁conscious	-10409
▁expressed	-10410
▁recording	-10411
▁survivors	-10412
▁wandering	-10413
▁educational	-10414
▁specifically	-10415
▁inappropriate	-10416
RY	-10417
Can	-10418
Too	-10419
dem	-10420
lix	-10421
uno	-10422
▁ax	-10423
▁ce	-10424
▁ow	-10425
Last	-10426
Mart	-10427
ayed	-10428
dies	-10429
ften	-10430
iped	-10431
oder	-10432
plex	-10433
stru	-10434
ubby	-10435
▁Bal	-10436
▁Eli	-10437
▁Fat	-10438
▁Put	-10439
▁WIT	-10440
▁jer	-10441
▁reb	-10442
▁vig	-10443
acity	-10444
bable	-10445
claim	-10446
pered	-10447
reens	-10448
ugust	-10449
▁Fear	-10450
▁Kids	-10451
▁Morm	-10452
▁cran	-10453
▁darn	-10454
▁deaf	-10455
▁muse	-10456
▁pops	-10457
▁prol	-10458
▁ramb	-10459
▁reck	-10460
▁soci	-10461
▁sums	-10462
▁1930'	-10463
▁Court	-10464
▁Keith	-10465
▁Kumar	-10466
▁Short	-10467
▁WORST	-10468
▁angst	-10469
▁rates	-10470
▁rifle	-10471
▁tends	-10472
onymous	-10473
through	-10474
▁amused	-10475
▁counts	-10476
▁merits	-10477
▁minded	-10478
▁render	-10479
▁rolled	-10480
▁rotten	-10481
▁tastes	-10482
rilliant	-10483
▁Friends	-10484
▁Montana	-10485
▁Sabrina	-10486
▁Sheriff	-10487
▁despair	-10488
▁loyalty	-10489
▁Nicholas	-10490
▁Stallone	-10491
▁Thompson	-10492
▁borrowed	-10493
▁bumbling	-10494
▁contrary	-10495
▁disliked	-10496
▁incorpor	-10497
▁musician	-10498
▁unimagin	-10499
▁Streisand	-10500
▁claustrop	-10501
▁greatness	-10502
▁respected	-10503
▁shameless	-10504
▁subjected	-10505
▁surviving	-10506
▁uplifting	-10507
particularly	-10508
▁complaining	-10509
▁grandfather	-10510
▁difficulties	-10511
-2	-10512
.(	-10513
FT	-10514
Wh	-10515
gio	-10516
met	-10517
oad	-10518
▁1)	-10519
▁Ot	-10520
both	-10521
bust	-10522
cles	-10523
ipid	-10524
rise	-10525
talk	-10526
▁Cut	-10527
▁Ord	-10528
▁Psy	-10529
▁max	-10530
▁tom	-10531
blood	-10532
ersed	-10533
hears	-10534
oston	-10535
rings	-10536
uated	-10537
▁2006	-10538
▁Clar	-10539
▁Game	-10540
▁Gard	-10541
▁Grim	-10542
▁Magn	-10543
▁Sirk	-10544
▁chat	-10545
▁code	-10546
▁mort	-10547
▁neur	-10548
▁rang	-10549
▁romp	-10550
▁saga	-10551
▁sust	-10552
aughty	-10553
istics	-10554
▁Dance	-10555
▁Hawke	-10556
▁Homer	-10557
▁Logan	-10558
▁Randy	-10559
▁grief	-10560
▁misgu	-10561
▁reson	-10562
▁sched	-10563
▁shaky	-10564
▁slice	-10565
▁tribe	-10566
another	-10567
ionship	-10568
ributes	-10569
▁Commun	-10570
▁Hammer	-10571
▁Middle	-10572
▁Strong	-10573
▁Valent	-10574
▁implic	-10575
▁sleaze	-10576
▁troops	-10577
▁Palance	-10578
▁Project	-10579
▁Simmons	-10580
▁alleged	-10581
▁censors	-10582
▁enlight	-10583
▁moronic	-10584
▁outfits	-10585
▁package	-10586
▁peoples	-10587
▁species	-10588
▁teaches	-10589
▁unravel	-10590
▁Interest	-10591
▁inherent	-10592
▁purposes	-10593
▁teaching	-10594
▁Charlotte	-10595
▁Therefore	-10596
▁depicting	-10597
▁heartfelt	-10598
▁interests	-10599
▁scarecrow	-10600
▁unlikable	-10601
▁complaints	-10602
▁directions	-10603
▁literature	-10604
▁accompanied	-10605
▁celebration	-10606
▁incompetent	-10607
!'	-10608
?'	-10609
▁x	-10610
ARN	-10611
IES	-10612
haw	-10613
rat	-10614
▁1,	-10615
▁Ep	-10616
alie	-10617
kish	-10618
lain	-10619
ldom	-10620
maid	-10621
orms	-10622
rang	-10623
▁BIG	-10624
▁Gle	-10625
▁Odd	-10626
▁Poe	-10627
▁awa	-10628
▁cul	-10629
▁vom	-10630
▁von	-10631
ables	-10632
asted	-10633
creen	-10634
ellig	-10635
ghter	-10636
ucker	-10637
▁Joel	-10638
▁Kent	-10639
▁Math	-10640
▁Ruby	-10641
▁Skip	-10642
▁amid	-10643
▁dish	-10644
▁exha	-10645
▁lush	-10646
▁roof	-10647
▁scat	-10648
Arthur	-10649
George	-10650
ampoon	-10651
itated	-10652
worthy	-10653
▁Boyle	-10654
▁Kline	-10655
▁Leigh	-10656
▁Marty	-10657
▁McCoy	-10658
▁Shame	-10659
▁Sissy	-10660
▁atroc	-10661
▁exter	-10662
▁greed	-10663
▁intim	-10664
▁joins	-10665
▁tacky	-10666
▁valid	-10667
iceless	-10668
▁Alicia	-10669
▁Alison	-10670
▁Angels	-10671
▁Austen	-10672
▁Cruise	-10673
▁Hughes	-10674
▁Pierce	-10675
▁Sandra	-10676
▁Stuart	-10677
▁abused	-10678
▁assign	-10679
▁choppy	-10680
▁doubts	-10681
▁ensues	-10682
▁puppet	-10683
▁raises	-10684
▁seduct	-10685
▁spaces	-10686
▁wholly	-10687
inations	-10688
▁Amazing	-10689
▁Amitabh	-10690
▁Christy	-10691
▁History	-10692
▁Ramones	-10693
▁Raymond	-10694
▁chuckle	-10695
▁defense	-10696
▁matched	-10697
▁pursuit	-10698
▁pushing	-10699
▁retired	-10700
▁warrior	-10701
▁Godzilla	-10702
▁Laurence	-10703
▁accuracy	-10704
▁randomly	-10705
▁remained	-10706
▁biography	-10707
▁basketball	-10708
▁depression	-10709
▁enthusiasm	-10710
▁mechanical	-10711
▁Recommended	-10712
▁generations	-10713
▁Frankenstein	-10714
▁dysfunctional	-10715
▁straightforward	-10716
''	-10717
>>	-10718
Ed	-10719
yo	-10720
(..	-10721
Cha	-10722
two	-10723
▁Ba	-10724
▁Mu	-10725
▁SF	-10726
▁SP	-10727
bast	-10728
date	-10729
ersh	-10730
erto	-10731
iker	-10732
show	-10733
▁Dig	-10734
▁Miy	-10735
▁gym	-10736
piece	-10737
▁2001	-10738
▁Bron	-10739
▁Dave	-10740
▁Gret	-10741
▁Pars	-10742
▁Pete	-10743
▁Road	-10744
▁Wang	-10745
▁doct	-10746
▁edgy	-10747
▁prec	-10748
ancing	-10749
ierney	-10750
length	-10751
modern	-10752
motion	-10753
▁1960'	-10754
▁1980'	-10755
▁Final	-10756
▁breed	-10757
▁rises	-10758
perhaps	-10759
thought	-10760
▁Atlant	-10761
▁Either	-10762
▁McCart	-10763
▁Patric	-10764
▁Paxton	-10765
▁astron	-10766
▁chills	-10767
▁circle	-10768
▁confir	-10769
▁ethnic	-10770
▁gender	-10771
▁hammer	-10772
▁narrow	-10773
▁offend	-10774
▁owners	-10775
▁report	-10776
▁senses	-10777
▁shoddy	-10778
▁therap	-10779
osterous	-10780
▁arrival	-10781
▁creator	-10782
▁insipid	-10783
▁mankind	-10784
▁psychic	-10785
▁wounded	-10786
provoking	-10787
▁Lundgren	-10788
▁Massacre	-10789
▁Sopranos	-10790
▁arguably	-10791
▁princess	-10792
▁restored	-10793
▁showdown	-10794
tenborough	-10795
▁encourage	-10796
▁priceless	-10797
▁secondary	-10798
▁suggested	-10799
▁conditions	-10800
▁frightened	-10801
▁reflection	-10802
▁civilization	-10803
▁automatically	-10804
Fl	-10805
ji	-10806
IRE	-10807
Pro	-10808
cas	-10809
psy	-10810
▁''	-10811
▁KN	-10812
▁tv	-10813
Niro	-10814
Plan	-10815
emic	-10816
ints	-10817
name	-10818
oter	-10819
rine	-10820
ylan	-10821
▁Div	-10822
▁Eri	-10823
▁Ern	-10824
▁Las	-10825
▁Liz	-10826
▁Rud	-10827
▁lip	-10828
▁ori	-10829
▁woe	-10830
agner	-10831
andal	-10832
atics	-10833
ensen	-10834
ettes	-10835
notch	-10836
overn	-10837
ppers	-10838
rable	-10839
stead	-10840
urned	-10841
▁/>1.	-10842
▁Bugs	-10843
▁Hero	-10844
▁Lang	-10845
▁aest	-10846
▁bell	-10847
▁flag	-10848
▁mast	-10849
▁sess	-10850
emesis	-10851
ifties	-10852
inness	-10853
really	-10854
rosawa	-10855
▁Nolan	-10856
▁arist	-10857
▁balls	-10858
▁cripp	-10859
▁flair	-10860
▁mafia	-10861
ifetime	-10862
▁Darren	-10863
▁Fuller	-10864
▁Temple	-10865
▁demise	-10866
▁enchan	-10867
▁grainy	-10868
▁obtain	-10869
▁posted	-10870
▁shared	-10871
▁wildly	-10872
daughter	-10873
▁Beatles	-10874
▁Bronson	-10875
▁Classic	-10876
▁Frankie	-10877
▁assumed	-10878
▁miracle	-10879
▁orchest	-10880
▁deceased	-10881
▁domestic	-10882
▁exposure	-10883
▁pressure	-10884
▁solution	-10885
▁Everybody	-10886
▁alongside	-10887
▁companies	-10888
▁fantasies	-10889
▁musicians	-10890
▁occasions	-10891
▁prisoners	-10892
▁profanity	-10893
▁receiving	-10894
▁Christians	-10895
▁confidence	-10896
▁expedition	-10897
▁hopelessly	-10898
▁industrial	-10899
▁misleading	-10900
▁alternative	-10901
▁discovering	-10902
▁examination	-10903
▁nonsensical	-10904
▁interactions	-10905
▁heartbreaking	-10906
-13	-10907
Big	-10908
Pol	-10909
eff	-10910
mmm	-10911
▁2-	-10912
▁22	-10913
▁AF	-10914
▁Wy	-10915
Best	-10916
Dark	-10917
comp	-10918
ecil	-10919
emet	-10920
enth	-10921
evil	-10922
iour	-10923
leen	-10924
neck	-10925
▁30'	-10926
▁Squ	-10927
▁Von	-10928
Death	-10929
Peter	-10930
Title	-10931
blown	-10932
bound	-10933
leted	-10934
oodle	-10935
power	-10936
uller	-10937
▁DEAD	-10938
▁Free	-10939
▁Head	-10940
▁bite	-10941
▁scra	-10942
▁worn	-10943
ernand	-10944
minger	-10945
reston	-10946
▁Brand	-10947
▁Cohen	-10948
▁Inter	-10949
▁Meryl	-10950
▁Sound	-10951
▁Union	-10952
▁armed	-10953
▁bride	-10954
▁degra	-10955
▁grabs	-10956
▁hokey	-10957
▁petty	-10958
▁rebel	-10959
▁wakes	-10960
agement	-10961
attract	-10962
berlake	-10963
respect	-10964
▁Better	-10965
▁Brenda	-10966
▁Domino	-10967
▁Gandhi	-10968
▁Reeves	-10969
▁Steele	-10970
▁Wilder	-10971
▁angels	-10972
▁enthra	-10973
▁ponder	-10974
▁signed	-10975
probably	-10976
▁Phillip	-10977
▁comprom	-10978
▁exhaust	-10979
▁gimmick	-10980
▁glasses	-10981
▁hearted	-10982
▁posters	-10983
▁sixties	-10984
▁substit	-10985
oneliness	-10986
▁Kurosawa	-10987
▁Terrible	-10988
▁analysis	-10989
▁aspiring	-10990
▁invented	-10991
▁restrict	-10992
▁roommate	-10993
▁youngest	-10994
▁According	-10995
▁ambiguous	-10996
▁brutality	-10997
▁comedians	-10998
▁murdering	-10999
▁shoulders	-11000
▁viewpoint	-11001
▁challenges	-11002
▁imaginable	-11003
▁translated	-11004
▁Blockbuster	-11005
▁caricatures	-11006
▁counterpart	-11007
▁frustrating	-11008
▁heartwarming	-11009
▁historically	-11010
▁respectively	-11011
▁simultaneously	-11012
,(	-11013
HH	-11014
OY	-11015
ef	-11016
Ben	-11017
Col	-11018
DVD	-11019
eur	-11020
sty	-11021
▁IF	-11022
▁WT	-11023
EASE	-11024
Many	-11025
arer	-11026
atum	-11027
bone	-11028
brid	-11029
chor	-11030
mary	-11031
ouch	-11032
▁'70	-11033
▁191	-11034
▁Mam	-11035
▁McK	-11036
▁Six	-11037
▁Syl	-11038
▁dow	-11039
These	-11040
arker	-11041
insaw	-11042
itzer	-11043
neyed	-11044
▁Cube	-11045
▁Fell	-11046
▁Gere	-11047
▁IMDB	-11048
▁Omen	-11049
▁Rukh	-11050
▁Wing	-11051
▁lips	-11052
▁meas	-11053
▁rats	-11054
▁reel	-11055
▁vein	-11056
Before	-11057
okemon	-11058
orders	-11059
person	-11060
ueless	-11061
urning	-11062
▁Alvin	-11063
▁Chand	-11064
▁Spain	-11065
▁Timon	-11066
▁Until	-11067
▁decor	-11068
▁rings	-11069
▁skits	-11070
▁skull	-11071
▁twins	-11072
▁wives	-11073
instein	-11074
itizens	-11075
sworthy	-11076
▁Danger	-11077
▁DeNiro	-11078
▁Powers	-11079
▁Spacey	-11080
▁expand	-11081
▁modest	-11082
▁noises	-11083
▁prince	-11084
directed	-11085
ications	-11086
▁Corbett	-11087
▁Daniels	-11088
▁Gillian	-11089
▁caliber	-11090
▁crucial	-11091
▁females	-11092
▁melting	-11093
▁pitiful	-11094
▁recover	-11095
▁Marshall	-11096
▁Republic	-11097
▁campaign	-11098
▁composer	-11099
▁designer	-11100
▁historic	-11101
▁receives	-11102
▁resemble	-11103
▁climactic	-11104
▁generated	-11105
▁imitation	-11106
▁insurance	-11107
▁misguided	-11108
▁policeman	-11109
▁indication	-11110
▁Technicolor	-11111
▁provocative	-11112
▁appropriately	-11113
▁confrontation	-11114
▁recommendation	-11115
uz	-11116
!"<	-11117
MAN	-11118
esy	-11119
jay	-11120
oos	-11121
pre	-11122
rip	-11123
▁'9	-11124
▁2:	-11125
▁BR	-11126
▁ME	-11127
▁WR	-11128
asha	-11129
auer	-11130
days	-11131
dead	-11132
gian	-11133
held	-11134
rain	-11135
rows	-11136
umes	-11137
▁Lor	-11138
▁Myr	-11139
▁Sea	-11140
▁Slo	-11141
▁ath	-11142
▁gam	-11143
▁org	-11144
▁ple	-11145
abled	-11146
adise	-11147
creat	-11148
goers	-11149
inter	-11150
neath	-11151
utive	-11152
▁Alec	-11153
▁Half	-11154
▁Hust	-11155
▁Reid	-11156
▁Reno	-11157
▁Side	-11158
▁boom	-11159
▁clip	-11160
▁dile	-11161
▁fist	-11162
▁gems	-11163
▁mode	-11164
▁rely	-11165
▁shed	-11166
▁shif	-11167
Having	-11168
corder	-11169
encies	-11170
everly	-11171
irited	-11172
itable	-11173
▁Alone	-11174
▁Games	-11175
▁Johan	-11176
▁Scary	-11177
▁Seven	-11178
▁cloud	-11179
▁delic	-11180
▁hears	-11181
▁heist	-11182
▁minus	-11183
▁voted	-11184
visible	-11185
▁Buster	-11186
▁Murray	-11187
▁Office	-11188
▁Writer	-11189
▁asylum	-11190
▁biased	-11191
▁cancer	-11192
▁newcom	-11193
▁oldest	-11194
▁shares	-11195
▁sketch	-11196
▁stores	-11197
▁twelve	-11198
renching	-11199
▁Othello	-11200
▁Tierney	-11201
▁butcher	-11202
▁desires	-11203
▁invites	-11204
▁kissing	-11205
▁ordered	-11206
▁remakes	-11207
▁singers	-11208
character	-11209
▁Needless	-11210
▁Phillips	-11211
▁Pictures	-11212
▁harmless	-11213
▁immature	-11214
▁literary	-11215
▁mentions	-11216
▁previews	-11217
▁befriends	-11218
▁housewife	-11219
▁inability	-11220
▁objective	-11221
▁selection	-11222
▁conscience	-11223
▁loneliness	-11224
▁sympathize	-11225
▁Goldsworthy	-11226
▁fascination	-11227
▁anticipation	-11228
▁inconsistent	-11229
▁preposterous	-11230
Gu	-11231
IV	-11232
Ye	-11233
FUL	-11234
cip	-11235
ded	-11236
kas	-11237
olt	-11238
ota	-11239
rup	-11240
urg	-11241
vas	-11242
▁HE	-11243
Okay	-11244
ashi	-11245
brow	-11246
ober	-11247
runs	-11248
vall	-11249
wear	-11250
yard	-11251
▁Duc	-11252
▁FIL	-11253
▁Gib	-11254
▁Roh	-11255
▁ben	-11256
▁fur	-11257
▁myt	-11258
eline	-11259
girls	-11260
inist	-11261
▁2/10	-11262
▁Aunt	-11263
▁Buff	-11264
▁Cany	-11265
▁Conf	-11266
▁Cong	-11267
▁Fast	-11268
▁Font	-11269
▁Malt	-11270
▁Snow	-11271
▁Tele	-11272
▁dose	-11273
▁rave	-11274
▁wars	-11275
actory	-11276
ffects	-11277
itchie	-11278
ounded	-11279
▁Bible	-11280
▁Carey	-11281
▁Ebert	-11282
▁Third	-11283
▁banal	-11284
▁bitch	-11285
▁cream	-11286
▁intro	-11287
▁mummy	-11288
▁recre	-11289
▁roots	-11290
fortune	-11291
nothing	-11292
▁Amazon	-11293
▁Forget	-11294
▁Nicole	-11295
▁Nobody	-11296
▁Sharon	-11297
▁active	-11298
▁disast	-11299
▁giallo	-11300
▁lifted	-11301
▁liners	-11302
▁margin	-11303
▁phrase	-11304
▁rhythm	-11305
▁roller	-11306
▁Brendan	-11307
▁Luckily	-11308
▁Preston	-11309
▁Whoever	-11310
▁chronic	-11311
▁heading	-11312
▁landing	-11313
▁objects	-11314
▁visited	-11315
identally	-11316
▁Pickford	-11317
▁deranged	-11318
▁exchange	-11319
▁gambling	-11320
▁teachers	-11321
▁thrilled	-11322
▁Naturally	-11323
▁Preminger	-11324
▁behaviour	-11325
▁hackneyed	-11326
▁operation	-11327
▁primitive	-11328
▁resulting	-11329
▁startling	-11330
▁activities	-11331
▁conviction	-11332
▁landscapes	-11333
▁positively	-11334
▁regardless	-11335
▁coincidence	-11336
▁conventions	-11337
▁improvement	-11338
▁understands	-11339
▁unexplained	-11340
▁Attenborough	-11341
▁experimental	-11342
//	-11343
Pr	-11344
rr	-11345
Ant	-11346
OUR	-11347
aks	-11348
dad	-11349
eor	-11350
lam	-11351
occ	-11352
usp	-11353
▁Ak	-11354
▁Dy	-11355
▁Os	-11356
hole	-11357
isty	-11358
load	-11359
owed	-11360
racy	-11361
▁lap	-11362
▁ven	-11363
*****	-11364
backs	-11365
gends	-11366
icker	-11367
lined	-11368
ulter	-11369
▁/>2.	-11370
▁Cand	-11371
▁Drey	-11372
▁Foxx	-11373
▁Holl	-11374
▁Minn	-11375
▁Post	-11376
▁Rent	-11377
▁cope	-11378
▁flam	-11379
▁flim	-11380
▁rail	-11381
▁reha	-11382
▁stim	-11383
▁tact	-11384
▁yawn	-11385
Little	-11386
Rating	-11387
atable	-11388
ission	-11389
omeday	-11390
▁Betty	-11391
▁Boyer	-11392
▁Major	-11393
▁Small	-11394
▁Speed	-11395
▁Tyler	-11396
▁boxer	-11397
▁lands	-11398
▁pages	-11399
▁prize	-11400
▁sweat	-11401
▁towns	-11402
fashion	-11403
minator	-11404
▁August	-11405
▁Boston	-11406
▁Canyon	-11407
▁Clarke	-11408
▁Corman	-11409
▁Pamela	-11410
▁Portug	-11411
▁Purple	-11412
▁Screen	-11413
▁Simply	-11414
▁Surely	-11415
▁Wagner	-11416
▁Watson	-11417
▁cattle	-11418
▁crazed	-11419
▁filler	-11420
▁insomn	-11421
▁libert	-11422
▁menace	-11423
▁nights	-11424
▁pedest	-11425
▁redund	-11426
▁remade	-11427
▁stream	-11428
mittedly	-11429
▁Affleck	-11430
▁Justice	-11431
▁Toronto	-11432
▁adopted	-11433
▁antagon	-11434
▁charged	-11435
▁glowing	-11436
▁judging	-11437
▁quietly	-11438
▁screens	-11439
▁serving	-11440
▁Harrison	-11441
▁Straight	-11442
▁audition	-11443
▁explores	-11444
▁handling	-11445
▁programs	-11446
▁promises	-11447
▁recycled	-11448
▁substant	-11449
▁suitably	-11450
attractive	-11451
▁Hopefully	-11452
▁absurdity	-11453
▁precisely	-11454
▁unrelated	-11455
▁exceptions	-11456
▁exposition	-11457
▁sensational	-11458
▁inexplicably	-11459
END	-11460
Jim	-11461
Spe	-11462
icy	-11463
vyn	-11464
zes	-11465
Dead	-11466
Love	-11467
ador	-11468
blum	-11469
ffic	-11470
hang	-11471
nger	-11472
ropa	-11473
symp	-11474
ulse	-11475
▁Bos	-11476
▁Tal	-11477
▁Woo	-11478
▁gap	-11479
▁lav	-11480
Never	-11481
Which	-11482
along	-11483
atman	-11484
balls	-11485
icken	-11486
itsch	-11487
ugene	-11488
ustin	-11489
▁Cros	-11490
▁Dana	-11491
▁WITH	-11492
▁cher	-11493
▁coup	-11494
▁depe	-11495
▁dope	-11496
▁fles	-11497
▁gear	-11498
▁merc	-11499
▁pant	-11500
▁prey	-11501
▁skit	-11502
▁span	-11503
▁vain	-11504
▁zoom	-11505
apable	-11506
icidal	-11507
▁Cecil	-11508
▁Olymp	-11509
▁Stack	-11510
▁Theat	-11511
▁alleg	-11512
▁drove	-11513
▁shred	-11514
▁snake	-11515
ilation	-11516
osition	-11517
urately	-11518
▁Harold	-11519
▁Marion	-11520
▁charms	-11521
▁garden	-11522
▁mayhem	-11523
▁outing	-11524
▁refuge	-11525
▁rising	-11526
▁stages	-11527
▁Believe	-11528
▁Mathieu	-11529
▁Perfect	-11530
▁Ritchie	-11531
▁Soldier	-11532
▁chapter	-11533
▁defined	-11534
▁dresses	-11535
▁forcing	-11536
▁hunters	-11537
▁invited	-11538
▁prepare	-11539
▁protest	-11540
▁servant	-11541
▁tempted	-11542
irlfriend	-11543
▁Guinness	-11544
▁Sunshine	-11545
▁betrayal	-11546
▁citizens	-11547
▁conclude	-11548
▁neurotic	-11549
▁outdated	-11550
▁overlong	-11551
▁premiere	-11552
▁reported	-11553
▁shoulder	-11554
▁sounding	-11555
▁Christine	-11556
▁acclaimed	-11557
▁confident	-11558
▁incorrect	-11559
▁ingenious	-11560
▁strongest	-11561
▁admittedly	-11562
▁challenged	-11563
▁commenting	-11564
▁contradict	-11565
▁portrayals	-11566
▁respective	-11567
▁adaptations	-11568
▁fundamental	-11569
▁unexpectedly	-11570
▁investigating	-11571
AME	-11572
Ind	-11573
Red	-11574
ati	-11575
bow	-11576
bye	-11577
dig	-11578
hov	-11579
ulk	-11580
ypo	-11581
▁"1	-11582
▁ta	-11583
Jane	-11584
apid	-11585
aura	-11586
pton	-11587
robe	-11588
roit	-11589
vals	-11590
▁Jod	-11591
▁Nas	-11592
▁Rat	-11593
▁Tok	-11594
▁lam	-11595
▁nod	-11596
Movie	-11597
arson	-11598
birds	-11599
eches	-11600
erner	-11601
guard	-11602
olden	-11603
onent	-11604
quire	-11605
ureau	-11606
▁AIDS	-11607
▁Bras	-11608
▁Earl	-11609
▁FILM	-11610
▁Foot	-11611
▁Gang	-11612
▁Hain	-11613
▁Hend	-11614
▁Note	-11615
▁View	-11616
▁WHAT	-11617
▁bump	-11618
▁epit	-11619
▁keen	-11620
▁penn	-11621
▁pron	-11622
▁rant	-11623
▁seam	-11624
▁sque	-11625
heimer	-11626
iculty	-11627
quette	-11628
▁Ariel	-11629
▁Beast	-11630
▁Chief	-11631
▁Crazy	-11632
▁Lukas	-11633
▁Sleep	-11634
▁Sweet	-11635
▁alley	-11636
▁backs	-11637
▁couch	-11638
▁dilem	-11639
▁disci	-11640
▁diver	-11641
▁gloom	-11642
▁hammy	-11643
▁hesit	-11644
▁ocean	-11645
▁unsus	-11646
▁votes	-11647
▁whale	-11648
fetched	-11649
iolence	-11650
special	-11651
▁Awards	-11652
▁Beyond	-11653
▁Chavez	-11654
▁Jordan	-11655
▁Kansas	-11656
▁Nights	-11657
▁Sudden	-11658
▁agency	-11659
▁guests	-11660
▁launch	-11661
▁option	-11662
▁outlaw	-11663
▁preced	-11664
▁steady	-11665
▁topics	-11666
▁wilder	-11667
▁Studios	-11668
▁academy	-11669
▁blowing	-11670
▁cruelty	-11671
▁destiny	-11672
▁earnest	-11673
▁fathers	-11674
▁promote	-11675
▁surgery	-11676
▁transpl	-11677
▁warming	-11678
irational	-11679
▁Christie	-11680
▁Fontaine	-11681
▁Goldblum	-11682
▁aristocr	-11683
▁contempt	-11684
▁credited	-11685
▁entitled	-11686
▁reflects	-11687
▁regarded	-11688
▁rejected	-11689
▁severely	-11690
▁shouting	-11691
▁stumbles	-11692
▁backwards	-11693
▁departure	-11694
▁deserving	-11695
▁Timberlake	-11696
▁definition	-11697
▁despicable	-11698
▁difficulty	-11699
▁disappears	-11700
▁obligatory	-11701
▁Furthermore	-11702
▁communicate	-11703
▁nominations	-11704
▁significance	-11705
▁assassination	-11706
▁representation	-11707
!".	-11708
://	-11709
Did	-11710
UST	-11711
dis	-11712
hot	-11713
ika	-11714
oqu	-11715
rob	-11716
ttp	-11717
voc	-11718
▁99	-11719
▁HU	-11720
▁UP	-11721
▁eg	-11722
OOOO	-11723
Sure	-11724
ioni	-11725
oler	-11726
road	-11727
tick	-11728
west	-11729
▁"10	-11730
▁Bab	-11731
▁DeM	-11732
▁Gay	-11733
▁Kol	-11734
▁Len	-11735
▁Loy	-11736
▁Mir	-11737
▁anc	-11738
▁cos	-11739
▁egg	-11740
gence	-11741
inson	-11742
ption	-11743
rophe	-11744
urman	-11745
▁/>3.	-11746
▁Gall	-11747
▁Gina	-11748
▁Kung	-11749
▁Lenn	-11750
▁Wait	-11751
▁Wish	-11752
▁lens	-11753
▁tomb	-11754
▁unem	-11755
▁unsu	-11756
astard	-11757
filled	-11758
incarn	-11759
▁Apple	-11760
▁Brain	-11761
▁Creat	-11762
▁Vader	-11763
▁fluid	-11764
▁hides	-11765
▁macho	-11766
▁newer	-11767
▁realm	-11768
▁ships	-11769
▁whats	-11770
covered	-11771
iblical	-11772
ighters	-11773
iseries	-11774
▁Beauty	-11775
▁Conrad	-11776
▁Crosby	-11777
▁Duvall	-11778
▁Follow	-11779
▁League	-11780
▁Marlon	-11781
▁Spider	-11782
▁Warhol	-11783
▁butler	-11784
▁debate	-11785
▁exceed	-11786
▁masses	-11787
▁savage	-11788
▁summar	-11789
▁trials	-11790
ventures	-11791
▁Bernard	-11792
▁Central	-11793
▁Grayson	-11794
▁Lindsay	-11795
▁Loretta	-11796
▁Rangers	-11797
▁abandon	-11798
▁energet	-11799
▁filling	-11800
▁insists	-11801
▁natives	-11802
▁rooting	-11803
▁samurai	-11804
▁shorter	-11805
idescreen	-11806
▁Horrible	-11807
▁addicted	-11808
▁dressing	-11809
▁duration	-11810
▁judgment	-11811
▁lifeless	-11812
▁referred	-11813
▁shopping	-11814
▁Paramount	-11815
▁Professor	-11816
▁amusement	-11817
▁glamorous	-11818
▁ignorance	-11819
▁mentality	-11820
▁reluctant	-11821
▁repeating	-11822
▁terrified	-11823
▁adolescent	-11824
▁miniseries	-11825
▁psychology	-11826
▁weaknesses	-11827
▁wilderness	-11828
▁transformed	-11829
▁considerably	-11830
AP	-11831
IP	-11832
KS	-11833
UD	-11834
AST	-11835
Bad	-11836
DER	-11837
IDE	-11838
IST	-11839
Les	-11840
Mad	-11841
eem	-11842
etc	-11843
▁.<	-11844
▁BT	-11845
Only	-11846
enez	-11847
insp	-11848
note	-11849
vell	-11850
▁ARE	-11851
▁Abb	-11852
▁Elm	-11853
▁Lex	-11854
▁Mau	-11855
▁Rel	-11856
▁Sox	-11857
▁ans	-11858
▁pha	-11859
.5/10	-11860
Since	-11861
azaki	-11862
esque	-11863
mpire	-11864
▁Cain	-11865
▁Cris	-11866
▁Lena	-11867
▁Vill	-11868
▁dont	-11869
▁eats	-11870
▁flee	-11871
▁glee	-11872
▁grin	-11873
▁monk	-11874
▁tops	-11875
▁vign	-11876
family	-11877
unless	-11878
▁Early	-11879
▁Gable	-11880
▁Robot	-11881
▁Truly	-11882
▁Trust	-11883
▁abund	-11884
▁birds	-11885
▁casts	-11886
▁coast	-11887
▁deriv	-11888
▁femme	-11889
▁messy	-11890
▁niece	-11891
▁quant	-11892
▁scrap	-11893
▁setup	-11894
▁spont	-11895
▁spree	-11896
▁swing	-11897
▁unimp	-11898
emetery	-11899
iblings	-11900
version	-11901
winning	-11902
▁Incred	-11903
▁Kidman	-11904
▁Others	-11905
▁Should	-11906
▁ballet	-11907
▁banter	-11908
▁boasts	-11909
▁comput	-11910
▁firmly	-11911
▁flashy	-11912
▁hippie	-11913
▁iconic	-11914
▁infant	-11915
▁loaded	-11916
▁namely	-11917
▁perman	-11918
▁rapist	-11919
▁select	-11920
▁wander	-11921
▁Antwone	-11922
▁Carlito	-11923
▁deleted	-11924
▁devices	-11925
▁fingers	-11926
▁handles	-11927
▁marries	-11928
▁refused	-11929
▁rehears	-11930
▁screwed	-11931
▁shaking	-11932
▁venture	-11933
▁vibrant	-11934
▁brooding	-11935
▁clueless	-11936
▁comprehe	-11937
▁disguise	-11938
▁insanity	-11939
▁internal	-11940
▁rational	-11941
▁Detective	-11942
▁Fishburne	-11943
▁astronaut	-11944
▁camcorder	-11945
▁completed	-11946
▁exploring	-11947
▁exquisite	-11948
▁specially	-11949
▁strangers	-11950
▁universal	-11951
▁accurately	-11952
▁describing	-11953
▁guaranteed	-11954
▁Chamberlain	-11955
▁millionaire	-11956
▁inexplicable	-11957
20	-11958
CR	-11959
ua	-11960
ART	-11961
Dra	-11962
Ham	-11963
Jul	-11964
VEN	-11965
gid	-11966
hin	-11967
wee	-11968
www	-11969
▁IV	-11970
ALLY	-11971
ikes	-11972
imon	-11973
inds	-11974
izer	-11975
lied	-11976
otti	-11977
warf	-11978
▁COM	-11979
▁Hig	-11980
▁Ins	-11981
▁Jar	-11982
▁Lar	-11983
▁Pho	-11984
▁Raw	-11985
▁Say	-11986
▁Tap	-11987
▁Uma	-11988
▁lux	-11989
▁rab	-11990
▁tip	-11991
ardom	-11992
epend	-11993
geant	-11994
heads	-11995
ieves	-11996
isted	-11997
omber	-11998
ourse	-11999
still	-12000
ussie	-12001
▁/>--	-12002
▁Brig	-12003
▁Fido	-12004
▁Jews	-12005
▁Karl	-12006
▁Left	-12007
▁Mask	-12008
▁Pegg	-12009
▁Rita	-12010
▁SOME	-12011
▁bike	-12012
▁enig	-12013
▁fade	-12014
▁heap	-12015
▁smug	-12016
▁ster	-12017
▁wire	-12018
ainted	-12019
innear	-12020
placed	-12021
resent	-12022
▁Among	-12023
▁Bacon	-12024
▁Bunny	-12025
▁Gersh	-12026
▁Kazan	-12027
▁Mason	-12028
▁Reeve	-12029
▁alter	-12030
▁bleed	-12031
▁brown	-12032
▁fifty	-12033
▁hires	-12034
▁homes	-12035
amiliar	-12036
atively	-12037
comings	-12038
imation	-12039
ologist	-12040
working	-12041
▁Adrian	-12042
▁Always	-12043
▁Huston	-12044
▁Naschy	-12045
▁Savage	-12046
▁billed	-12047
▁disreg	-12048
▁embark	-12049
▁farmer	-12050
▁firing	-12051
▁framed	-12052
▁locals	-12053
▁nerves	-12054
▁reader	-12055
▁seldom	-12056
▁societ	-12057
▁sorely	-12058
▁static	-12059
▁Colonel	-12060
▁Melissa	-12061
▁address	-12062
▁anyways	-12063
▁archite	-12064
▁assured	-12065
▁conveys	-12066
▁emerges	-12067
▁fishing	-12068
▁hapless	-12069
▁preachy	-12070
▁punches	-12071
▁quarter	-12072
▁sending	-12073
▁Normally	-12074
▁Springer	-12075
▁delicate	-12076
▁employed	-12077
▁forgiven	-12078
▁grateful	-12079
▁hilarity	-12080
▁infected	-12081
▁needless	-12082
▁rendered	-12083
▁visiting	-12084
▁youthful	-12085
▁Brilliant	-12086
▁nightclub	-12087
▁publicity	-12088
▁similarly	-12089
▁uncertain	-12090
▁additional	-12091
▁cartoonish	-12092
▁compliment	-12093
▁containing	-12094
▁definitive	-12095
▁discussing	-12096
▁mannerisms	-12097
▁misfortune	-12098
▁Christianity	-12099
▁demonstrates	-12100
▁recognizable	-12101
<<	-12102
FE	-12103
Me	-12104
ko	-12105
.).	-12106
ALL	-12107
New	-12108
doc	-12109
gud	-12110
iki	-12111
imo	-12112
utt	-12113
yet	-12114
▁2"	-12115
▁AM	-12116
▁Ki	-12117
Rock	-12118
aise	-12119
atha	-12120
atti	-12121
borg	-12122
deal	-12123
dest	-12124
eous	-12125
esar	-12126
holy	-12127
iard	-12128
indu	-12129
inks	-12130
lime	-12131
mund	-12132
odge	-12133
uary	-12134
zzzz	-12135
▁ACT	-12136
▁BSG	-12137
▁Ble	-12138
▁Gro	-12139
▁Hob	-12140
▁Jol	-12141
▁Nap	-12142
▁hij	-12143
▁kar	-12144
▁pie	-12145
Super	-12146
acles	-12147
chair	-12148
comes	-12149
ested	-12150
lucky	-12151
obile	-12152
▁2004	-12153
▁2005	-12154
▁Bert	-12155
▁Cool	-12156
▁DOES	-12157
▁Gypo	-12158
▁Pink	-12159
▁Pumb	-12160
▁caut	-12161
▁hust	-12162
▁sale	-12163
▁solo	-12164
▁vary	-12165
▁vice	-12166
acious	-12167
almost	-12168
irties	-12169
moving	-12170
uation	-12171
▁Carla	-12172
▁Cliff	-12173
▁Color	-12174
▁Dreyf	-12175
▁Dylan	-12176
▁Soder	-12177
▁State	-12178
▁Wendy	-12179
▁cents	-12180
▁dimin	-12181
▁dwell	-12182
▁glued	-12183
▁hypoc	-12184
▁squad	-12185
▁steel	-12186
▁uncut	-12187
▁waves	-12188
busters	-12189
writing	-12190
▁/>4/10	-12191
▁assert	-12192
▁circus	-12193
▁dismal	-12194
▁layers	-12195
▁remove	-12196
▁vastly	-12197
▁Diamond	-12198
▁Gilliam	-12199
▁Machine	-12200
▁Mitchum	-12201
▁Running	-12202
▁Sanders	-12203
▁Wedding	-12204
▁accepts	-12205
▁cheaply	-12206
▁fulfill	-12207
▁radical	-12208
▁someday	-12209
▁sublime	-12210
▁victory	-12211
▁Einstein	-12212
▁deserted	-12213
▁destined	-12214
▁disorder	-12215
▁midnight	-12216
▁outright	-12217
▁prisoner	-12218
▁siblings	-12219
▁speeches	-12220
▁studying	-12221
▁suburban	-12222
▁admirable	-12223
▁decidedly	-12224
▁demanding	-12225
▁immediate	-12226
▁prominent	-12227
▁threatens	-12228
▁uniformly	-12229
▁advertised	-12230
▁insightful	-12231
▁phenomenon	-12232
▁comparisons	-12233
▁contribution	-12234
▁shortcomings	-12235
▁unsuspecting	-12236
Sl	-12237
gt	-12238
.),	-12239
ERT	-12240
OTH	-12241
Pat	-12242
Ray	-12243
Sam	-12244
flu	-12245
gey	-12246
umi	-12247
xic	-12248
▁8.	-12249
▁PC	-12250
▁SG	-12251
▁ol	-12252
Bill	-12253
Lost	-12254
abre	-12255
aghe	-12256
agle	-12257
bbie	-12258
eson	-12259
geon	-12260
usty	-12261
word	-12262
▁Bry	-12263
▁CBS	-12264
▁Fil	-12265
▁Hou	-12266
▁Jaf	-12267
▁Joy	-12268
▁Liu	-12269
▁MAD	-12270
▁OUT	-12271
▁Tam	-12272
▁Voy	-12273
▁ape	-12274
▁coc	-12275
▁lic	-12276
▁nit	-12277
alker	-12278
atton	-12279
enson	-12280
hetto	-12281
iture	-12282
keley	-12283
named	-12284
owulf	-12285
▁Judd	-12286
▁Tone	-12287
▁brat	-12288
▁debt	-12289
▁foil	-12290
▁lend	-12291
▁owns	-12292
bourne	-12293
epburn	-12294
ndrome	-12295
neider	-12296
rating	-12297
umming	-12298
▁Burke	-12299
▁Mabel	-12300
▁Naked	-12301
▁Order	-12302
▁Party	-12303
▁archa	-12304
▁artic	-12305
▁bully	-12306
▁decap	-12307
▁incon	-12308
▁lasts	-12309
▁ninja	-12310
▁seedy	-12311
▁slimy	-12312
▁vocal	-12313
ciously	-12314
ielding	-12315
▁Bottom	-12316
▁Deanna	-12317
▁Dudley	-12318
▁Lennon	-12319
▁Puerto	-12320
▁Valley	-12321
▁ancest	-12322
▁coward	-12323
▁hugely	-12324
▁hungry	-12325
▁stairs	-12326
▁weaker	-12327
▁Georges	-12328
▁Thurman	-12329
▁Vanessa	-12330
▁chopped	-12331
▁cliches	-12332
▁edition	-12333
▁enhance	-12334
▁healthy	-12335
▁inflict	-12336
▁inspire	-12337
▁knocked	-12338
▁morally	-12339
▁mothers	-12340
▁painter	-12341
▁praised	-12342
▁schools	-12343
▁weather	-12344
▁Lifetime	-12345
▁Miyazaki	-12346
▁Twilight	-12347
▁abruptly	-12348
▁activity	-12349
▁ambition	-12350
▁centered	-12351
▁concepts	-12352
▁dazzling	-12353
▁defeated	-12354
▁dropping	-12355
▁immortal	-12356
▁mistress	-12357
▁sometime	-12358
▁stopping	-12359
production	-12360
▁Knightley	-12361
▁disgusted	-12362
▁paintings	-12363
▁partially	-12364
▁realities	-12365
▁sincerely	-12366
▁disastrous	-12367
▁engrossing	-12368
▁inevitably	-12369
▁presenting	-12370
▁suspension	-12371
▁unlikeable	-12372
▁connections	-12373
▁continually	-12374
▁inhabitants	-12375
▁inspirational	-12376
▁unimaginative	-12377
pa	-12378
Dis	-12379
IVE	-12380
mid	-12381
mus	-12382
wer	-12383
▁hi	-12384
avin	-12385
bits	-12386
bral	-12387
burg	-12388
cile	-12389
esse	-12390
gins	-12391
indy	-12392
isia	-12393
ixar	-12394
moil	-12395
oshi	-12396
quin	-12397
roma	-12398
thon	-12399
▁Bug	-12400
▁CON	-12401
▁Cos	-12402
▁Ric	-12403
▁Syd	-12404
▁WHO	-12405
▁apt	-12406
▁huh	-12407
arrot	-12408
atoes	-12409
▁MUCH	-12410
▁Main	-12411
▁Mall	-12412
▁Name	-12413
▁Prom	-12414
▁Thor	-12415
▁Upon	-12416
▁belt	-12417
▁clin	-12418
▁info	-12419
▁loop	-12420
▁pill	-12421
▁pour	-12422
▁succ	-12423
▁turd	-12424
▁vile	-12425
▁wart	-12426
abelle	-12427
acking	-12428
insale	-12429
mostly	-12430
ocaust	-12431
orcist	-12432
ortant	-12433
▁Bates	-12434
▁Bloom	-12435
▁Curly	-12436
▁Hawai	-12437
▁Kudos	-12438
▁Storm	-12439
▁adore	-12440
▁artsy	-12441
▁cheek	-12442
▁crisp	-12443
▁drift	-12444
▁hangs	-12445
▁hitch	-12446
▁mercy	-12447
▁nails	-12448
▁poker	-12449
▁rainy	-12450
▁shell	-12451
▁smugg	-12452
▁spies	-12453
▁spine	-12454
▁sugar	-12455
▁vital	-12456
atement	-12457
idelity	-12458
pending	-12459
playing	-12460
▁Actors	-12461
▁Casper	-12462
▁Esther	-12463
▁Eugene	-12464
▁Hadley	-12465
▁Native	-12466
▁agenda	-12467
▁barrel	-12468
▁drinks	-12469
▁fatale	-12470
▁formed	-12471
▁legacy	-12472
▁museum	-12473
▁retire	-12474
▁subtly	-12475
▁tossed	-12476
▁Cassave	-12477
▁Country	-12478
▁Kinnear	-12479
▁affects	-12480
▁artwork	-12481
▁buffalo	-12482
▁corpses	-12483
▁crashes	-12484
▁dashing	-12485
▁doctors	-12486
▁grounds	-12487
▁inherit	-12488
▁naughty	-12489
▁ripping	-12490
▁sharing	-12491
▁subtext	-12492
▁supreme	-12493
▁turmoil	-12494
▁vividly	-12495
▁wanders	-12496
fashioned	-12497
▁Spoilers	-12498
▁advertis	-12499
▁canceled	-12500
▁cemetery	-12501
▁cracking	-12502
▁critique	-12503
▁divorced	-12504
▁headache	-12505
▁husbands	-12506
▁resolved	-12507
▁scariest	-12508
▁standout	-12509
▁acknowled	-12510
▁blatantly	-12511
▁computers	-12512
▁energetic	-12513
▁isolation	-12514
▁preferred	-12515
▁residents	-12516
▁Supporting	-12517
▁acceptance	-12518
▁inaccurate	-12519
▁rebellious	-12520
▁suggestion	-12521
▁expectation	-12522
▁mesmerizing	-12523
▁claustrophobic	-12524
-9	-12525
CM	-12526
NT	-12527
da	-12528
ANG	-12529
ATH	-12530
ICK	-12531
asi	-12532
dro	-12533
dys	-12534
iba	-12535
rin	-12536
rug	-12537
tal	-12538
uke	-12539
zzy	-12540
▁3)	-12541
▁AR	-12542
Mary	-12543
Mean	-12544
anca	-12545
ardo	-12546
emen	-12547
flix	-12548
know	-12549
lord	-12550
omei	-12551
▁DID	-12552
▁Kam	-12553
▁Loc	-12554
▁Pas	-12555
▁Sor	-12556
▁Var	-12557
▁beg	-12558
▁bug	-12559
Final	-12560
ahmer	-12561
andon	-12562
aurie	-12563
banks	-12564
bergh	-12565
comed	-12566
encer	-12567
essed	-12568
gency	-12569
irsty	-12570
liest	-12571
sorry	-12572
stood	-12573
unker	-12574
▁9/11	-12575
▁Beet	-12576
▁Berk	-12577
▁Clay	-12578
▁Fitz	-12579
▁Room	-12580
▁Vega	-12581
▁WILL	-12582
▁Whit	-12583
▁YOUR	-12584
▁babe	-12585
▁craz	-12586
▁hott	-12587
▁laun	-12588
▁laws	-12589
▁leap	-12590
▁ling	-12591
▁pulp	-12592
▁upst	-12593
driven	-12594
elcome	-12595
intage	-12596
normal	-12597
uentin	-12598
utions	-12599
▁Bland	-12600
▁Bruno	-12601
▁Buddy	-12602
▁Caron	-12603
▁Flash	-12604
▁Hotel	-12605
▁Kitty	-12606
▁Niven	-12607
▁flood	-12608
▁males	-12609
▁masks	-12610
▁mayor	-12611
▁memor	-12612
▁peril	-12613
achelor	-12614
aghetti	-12615
ortions	-12616
rection	-12617
▁Behind	-12618
▁Gentle	-12619
▁Gerald	-12620
▁PLEASE	-12621
▁chorus	-12622
▁copied	-12623
▁culmin	-12624
▁flimsy	-12625
▁growth	-12626
▁morals	-12627
▁motive	-12628
▁sooner	-12629
▁statue	-12630
▁unsure	-12631
produced	-12632
▁Actress	-12633
▁Antonio	-12634
▁Cinemat	-12635
▁Pokemon	-12636
▁adulter	-12637
▁compete	-12638
▁damaged	-12639
▁factors	-12640
▁fifties	-12641
▁flashes	-12642
▁helpful	-12643
▁rapidly	-12644
▁sensual	-12645
▁Instinct	-12646
▁Longoria	-12647
▁Patricia	-12648
▁eternity	-12649
▁eventual	-12650
▁feminist	-12651
▁reincarn	-12652
▁reliable	-12653
▁routines	-12654
▁switched	-12655
enaissance	-12656
▁Antonioni	-12657
▁Armstrong	-12658
▁Entertain	-12659
▁courtroom	-12660
▁evolution	-12661
▁preparing	-12662
▁referring	-12663
▁testament	-12664
sympathetic	-12665
▁Revolution	-12666
▁caricature	-12667
▁derivative	-12668
▁filmmaking	-12669
▁noticeable	-12670
▁relentless	-12671
▁differently	-12672
▁excellently	-12673
▁predecessor	-12674
▁characteristics	-12675
/5	-12676
99	-12677
?"<	-12678
Mel	-12679
Our	-12680
REE	-12681
bod	-12682
cel	-12683
hoo	-12684
omy	-12685
opp	-12686
pan	-12687
rek	-12688
▁75	-12689
▁CL	-12690
▁Ga	-12691
gles	-12692
hart	-12693
high	-12694
orey	-12695
orro	-12696
scar	-12697
tale	-12698
uest	-12699
your	-12700
▁Clo	-12701
▁Hum	-12702
▁TIM	-12703
▁Tak	-12704
▁Tot	-12705
▁err	-12706
▁goo	-12707
Frank	-12708
Lewis	-12709
adium	-12710
eting	-12711
hilar	-12712
hobia	-12713
isode	-12714
olved	-12715
oming	-12716
ookie	-12717
overs	-12718
raged	-12719
▁Barn	-12720
▁Fein	-12721
▁Frit	-12722
▁HAVE	-12723
▁Jill	-12724
▁MUST	-12725
▁Mast	-12726
▁Sara	-12727
▁Visc	-12728
▁Wong	-12729
▁abdu	-12730
▁barb	-12731
▁bulk	-12732
▁coff	-12733
▁curt	-12734
▁duck	-12735
▁melt	-12736
▁poll	-12737
▁trop	-12738
▁yard	-12739
actica	-12740
alians	-12741
asting	-12742
headle	-12743
ielgud	-12744
lights	-12745
sexual	-12746
shadow	-12747
udding	-12748
ugging	-12749
walker	-12750
wolves	-12751
▁Bride	-12752
▁Denis	-12753
▁Fairy	-12754
▁Giant	-12755
▁Hindi	-12756
▁Outer	-12757
▁Phoen	-12758
▁Polly	-12759
▁Thats	-12760
▁Timmy	-12761
▁belly	-12762
▁dates	-12763
▁jaded	-12764
▁pecul	-12765
▁schol	-12766
▁stare	-12767
esquire	-12768
eworthy	-12769
without	-12770
▁Austin	-12771
▁Bogart	-12772
▁Capote	-12773
▁Carmen	-12774
▁Potter	-12775
▁ghetto	-12776
▁guards	-12777
▁insect	-12778
▁meteor	-12779
▁pathos	-12780
▁unseen	-12781
▁Beverly	-12782
▁Hepburn	-12783
▁Kathryn	-12784
▁Looking	-12785
▁appeals	-12786
▁arguing	-12787
▁dubious	-12788
▁motorcy	-12789
▁nuances	-12790
▁outline	-12791
▁physics	-12792
▁strings	-12793
▁updated	-12794
hetically	-12795
▁Berkeley	-12796
▁Sarandon	-12797
▁Werewolf	-12798
▁assuming	-12799
▁claiming	-12800
▁pleasing	-12801
▁promptly	-12802
▁servants	-12803
▁stranded	-12804
▁Masterson	-12805
▁estranged	-12806
▁intricate	-12807
▁organized	-12808
▁overblown	-12809
▁repulsive	-12810
▁rewarding	-12811
▁satirical	-12812
▁separated	-12813
▁accessible	-12814
▁astounding	-12815
▁meandering	-12816
▁principals	-12817
▁stunningly	-12818
▁authorities	-12819
▁institution	-12820
▁limitations	-12821
▁unattractive	-12822
":	-12823
)!	-12824
Ab	-12825
GH	-12826
Im	-12827
?".	-12828
ACT	-12829
Eng	-12830
ISS	-12831
cca	-12832
dep	-12833
pah	-12834
saw	-12835
sis	-12836
▁!!	-12837
▁AD	-12838
▁GO	-12839
▁SW	-12840
▁Ut	-12841
▁um	-12842
aaaa	-12843
aron	-12844
bill	-12845
chak	-12846
cool	-12847
edge	-12848
eler	-12849
feld	-12850
hear	-12851
herd	-12852
impy	-12853
kill	-12854
math	-12855
nity	-12856
noir	-12857
olis	-12858
ollo	-12859
ombi	-12860
rica	-12861
uate	-12862
usey	-12863
wide	-12864
▁300	-12865
▁Bis	-12866
▁Cob	-12867
▁Der	-12868
▁Exp	-12869
▁Gos	-12870
▁Lil	-12871
▁McN	-12872
▁Pav	-12873
▁Tow	-12874
▁Tro	-12875
▁Vol	-12876
▁tho	-12877
RIBLE	-12878
atile	-12879
berry	-12880
genre	-12881
ounty	-12882
super	-12883
ubble	-12884
▁Away	-12885
▁DVDs	-12886
▁Gone	-12887
▁Hale	-12888
▁Happ	-12889
▁Lass	-12890
▁Lois	-12891
▁Mack	-12892
▁Oper	-12893
▁Poll	-12894
▁Test	-12895
▁bree	-12896
▁buzz	-12897
▁chew	-12898
▁item	-12899
▁lion	-12900
▁plag	-12901
▁poke	-12902
▁prog	-12903
▁slee	-12904
▁tire	-12905
▁wash	-12906
Direct	-12907
People	-12908
before	-12909
ridden	-12910
ypical	-12911
▁Errol	-12912
▁Fried	-12913
▁Heath	-12914
▁Irene	-12915
▁Light	-12916
▁Tiger	-12917
▁Trier	-12918
▁Troma	-12919
▁blunt	-12920
▁error	-12921
▁insec	-12922
▁moron	-12923
▁squee	-12924
▁token	-12925
▁whiny	-12926
ardless	-12927
enezuel	-12928
entinel	-12929
ulating	-12930
umental	-12931
▁/>8/10	-12932
▁Aussie	-12933
▁Danish	-12934
▁Gamera	-12935
▁Giallo	-12936
▁Laurie	-12937
▁Madsen	-12938
▁Martha	-12939
▁Stupid	-12940
▁Wizard	-12941
▁autobi	-12942
▁babies	-12943
▁emerge	-12944
▁gained	-12945
▁prosec	-12946
▁racing	-12947
▁refers	-12948
▁refuse	-12949
▁scenar	-12950
▁supply	-12951
▁underm	-12952
▁unleas	-12953
▁washed	-12954
▁colours	-12955
▁complet	-12956
▁conduct	-12957
▁decline	-12958
▁discern	-12959
▁entered	-12960
▁eternal	-12961
▁fragile	-12962
▁glaring	-12963
▁inspect	-12964
▁insults	-12965
▁lasting	-12966
▁longing	-12967
▁pronoun	-12968
▁puppets	-12969
▁rampage	-12970
▁sinking	-12971
▁studies	-12972
▁visions	-12973
▁Arquette	-12974
▁answered	-12975
▁combines	-12976
▁elevator	-12977
▁enhanced	-12978
▁entering	-12979
▁entirety	-12980
▁expertly	-12981
▁exploits	-12982
▁hardship	-12983
▁insights	-12984
▁resulted	-12985
▁survives	-12986
▁tracking	-12987
ographical	-12988
▁delighted	-12989
▁disguised	-12990
▁justified	-12991
▁obsessive	-12992
▁tolerable	-12993
▁transform	-12994
▁Beckinsale	-12995
▁Soderbergh	-12996
▁comprehend	-12997
▁controlled	-12998
▁threatened	-12999
▁undeniably	-13000
▁underneath	-13001
▁approaching	-13002
▁masterfully	-13003
▁authenticity	-13004
▁unsatisfying	-13005
-8	-13006
SH	-13007
oj	-13008
!",	-13009
Add	-13010
ITE	-13011
ITY	-13012
OMB	-13013
ORY	-13014
RED	-13015
Sil	-13016
Yet	-13017
bil	-13018
bon	-13019
fig	-13020
lan	-13021
lda	-13022
lma	-13023
odd	-13024
pot	-13025
▁'8	-13026
▁23	-13027
?!?!	-13028
adly	-13029
anth	-13030
eted	-13031
iane	-13032
itan	-13033
must	-13034
onti	-13035
oven	-13036
vial	-13037
▁Cop	-13038
▁Gig	-13039
▁HOR	-13040
▁Hon	-13041
▁Lev	-13042
▁NBC	-13043
▁Oak	-13044
▁gor	-13045
▁wax	-13046
antha	-13047
athon	-13048
cends	-13049
chant	-13050
cheek	-13051
cript	-13052
ieval	-13053
iffer	-13054
inate	-13055
inski	-13056
sored	-13057
utton	-13058
ymour	-13059
ypher	-13060
▁Boss	-13061
▁Dest	-13062
▁Emil	-13063
▁Fans	-13064
▁Host	-13065
▁Knox	-13066
▁Mick	-13067
▁Seed	-13068
▁Shot	-13069
▁Toby	-13070
▁akin	-13071
▁chim	-13072
▁deem	-13073
▁deny	-13074
▁hers	-13075
▁narc	-13076
▁rear	-13077
▁salv	-13078
ennett	-13079
erotic	-13080
igious	-13081
market	-13082
outhed	-13083
ployed	-13084
scenes	-13085
struck	-13086
▁Creek	-13087
▁Irons	-13088
▁Kirst	-13089
▁Mouse	-13090
▁Stock	-13091
▁Thorn	-13092
▁Today	-13093
▁Tomei	-13094
▁adopt	-13095
▁apply	-13096
▁babys	-13097
▁condu	-13098
▁fraud	-13099
▁goals	-13100
▁goods	-13101
▁heels	-13102
▁quint	-13103
▁races	-13104
▁route	-13105
▁taped	-13106
▁wider	-13107
Nothing	-13108
ouement	-13109
quality	-13110
▁Ingrid	-13111
▁Salman	-13112
▁Sebast	-13113
▁Sister	-13114
▁Sophie	-13115
▁Sydney	-13116
▁arrang	-13117
▁classy	-13118
▁define	-13119
▁flavor	-13120
▁judged	-13121
▁ladder	-13122
▁posing	-13123
▁pursue	-13124
▁region	-13125
▁struct	-13126
▁wounds	-13127
▁yellow	-13128
iterally	-13129
▁Eastern	-13130
▁Gielgud	-13131
▁Gilbert	-13132
▁Hackman	-13133
▁Muppets	-13134
▁Nicolas	-13135
▁Pacific	-13136
▁Private	-13137
▁Seymour	-13138
▁Stephan	-13139
▁Theatre	-13140
▁begging	-13141
▁budgets	-13142
▁cinemas	-13143
▁constra	-13144
▁coupled	-13145
▁degener	-13146
▁demonic	-13147
▁located	-13148
▁offbeat	-13149
▁percent	-13150
▁scandal	-13151
▁trivial	-13152
▁Charlton	-13153
▁Original	-13154
▁Randolph	-13155
▁Sentinel	-13156
▁accounts	-13157
▁cerebral	-13158
▁landmark	-13159
▁plotting	-13160
▁prospect	-13161
▁reminder	-13162
▁romances	-13163
▁selected	-13164
▁sticking	-13165
▁tendency	-13166
▁wardrobe	-13167
▁Direction	-13168
▁Europeans	-13169
▁Fairbanks	-13170
▁addiction	-13171
▁identical	-13172
▁immigrant	-13173
▁incapable	-13174
▁possesses	-13175
▁published	-13176
▁remembers	-13177
▁scripting	-13178
▁seductive	-13179
▁spectacle	-13180
▁tormented	-13181
▁Cassavetes	-13182
▁Winchester	-13183
▁approaches	-13184
▁improbable	-13185
▁devastating	-13186
▁enthusiastic	-13187
▁experiencing	-13188
Car	-13189
Den	-13190
Hor	-13191
Old	-13192
War	-13193
axy	-13194
cor	-13195
fra	-13196
gob	-13197
hou	-13198
jor	-13199
ois	-13200
rim	-13201
ymp	-13202
▁95	-13203
▁HK	-13204
▁Kn	-13205
▁py	-13206
Life	-13207
ackt	-13208
grap	-13209
hast	-13210
lent	-13211
omic	-13212
oyle	-13213
rary	-13214
vous	-13215
▁Gre	-13216
▁Key	-13217
▁LOL	-13218
▁Lin	-13219
▁Pia	-13220
▁Sty	-13221
▁TCM	-13222
▁Toy	-13223
▁Tun	-13224
▁que	-13225
▁sta	-13226
Thank	-13227
aints	-13228
iland	-13229
immer	-13230
inian	-13231
orous	-13232
▁1983	-13233
▁Asia	-13234
▁Duck	-13235
▁Fors	-13236
▁Hers	-13237
▁KNOW	-13238
▁Mess	-13239
▁Must	-13240
▁Rush	-13241
▁Teen	-13242
▁avid	-13243
▁bars	-13244
▁bent	-13245
▁bush	-13246
▁chee	-13247
▁deer	-13248
▁hoot	-13249
▁impe	-13250
▁pals	-13251
▁pomp	-13252
▁slip	-13253
▁slut	-13254
▁snap	-13255
▁unsc	-13256
▁ware	-13257
▁wolf	-13258
Murray	-13259
aneous	-13260
former	-13261
orters	-13262
ptical	-13263
▁Awful	-13264
▁Blade	-13265
▁Clive	-13266
▁Colin	-13267
▁Edith	-13268
▁Jared	-13269
▁Jolie	-13270
▁March	-13271
▁alert	-13272
▁blues	-13273
▁disin	-13274
▁drill	-13275
▁faint	-13276
▁lunch	-13277
▁nerve	-13278
▁packs	-13279
▁pione	-13280
▁puppy	-13281
▁unans	-13282
▁vigil	-13283
▁yours	-13284
.......	-13285
llywood	-13286
usively	-13287
▁Audrey	-13288
▁Evelyn	-13289
▁Hooper	-13290
▁Lester	-13291
▁Reiser	-13292
▁Wright	-13293
▁beside	-13294
▁calcul	-13295
▁extrav	-13296
▁feeble	-13297
▁festiv	-13298
▁handic	-13299
▁landed	-13300
▁mixing	-13301
▁neatly	-13302
▁patron	-13303
▁transp	-13304
▁wisely	-13305
▁/>10/10	-13306
▁Frankly	-13307
▁Garland	-13308
▁Georgia	-13309
▁Natalie	-13310
▁Phoenix	-13311
▁chicken	-13312
▁commits	-13313
▁depends	-13314
▁descent	-13315
▁dilemma	-13316
▁expects	-13317
▁hateful	-13318
▁jarring	-13319
▁leather	-13320
▁lighter	-13321
▁passage	-13322
▁popping	-13323
▁rescued	-13324
▁seeming	-13325
▁settled	-13326
▁whining	-13327
▁worship	-13328
entertain	-13329
▁Sundance	-13330
▁airplane	-13331
▁conveyed	-13332
▁destroys	-13333
▁disabled	-13334
▁shootout	-13335
▁starters	-13336
▁swearing	-13337
▁symbolic	-13338
▁theories	-13339
▁triangle	-13340
▁Feinstone	-13341
▁convinces	-13342
▁crocodile	-13343
▁sarcastic	-13344
▁approached	-13345
▁contribute	-13346
▁kidnapping	-13347
▁pedestrian	-13348
▁perception	-13349
▁politician	-13350
▁widescreen	-13351
▁composition	-13352
▁distraction	-13353
▁indifferent	-13354
▁photographs	-13355
▁consideration	-13356
▁excruciatingly	-13357
▁sentimentality	-13358
AK	-13359
EY	-13360
VO	-13361
WH	-13362
NOT	-13363
Pal	-13364
cat	-13365
mad	-13366
rec	-13367
ria	-13368
una	-13369
wic	-13370
▁3,	-13371
▁PO	-13372
▁TW	-13373
▁fi	-13374
Both	-13375
Fred	-13376
buck	-13377
ffer	-13378
sson	-13379
ules	-13380
urst	-13381
ware	-13382
▁Bed	-13383
▁Ill	-13384
▁Moe	-13385
▁Paz	-13386
▁Pin	-13387
▁Rid	-13388
▁Sem	-13389
▁cue	-13390
▁lol	-13391
▁neo	-13392
Blood	-13393
Three	-13394
asses	-13395
erity	-13396
inkle	-13397
iston	-13398
later	-13399
olini	-13400
psons	-13401
ufact	-13402
wling	-13403
▁1972	-13404
▁Born	-13405
▁Card	-13406
▁Dumb	-13407
▁Lowe	-13408
▁Mend	-13409
▁Scor	-13410
▁Toni	-13411
▁Vien	-13412
▁Work	-13413
▁chem	-13414
▁doom	-13415
▁idol	-13416
▁turt	-13417
Bottom	-13418
ocracy	-13419
sworth	-13420
ulsion	-13421
▁Boris	-13422
▁Busey	-13423
▁LOVED	-13424
▁McInt	-13425
▁Pixar	-13426
▁Tokyo	-13427
▁Warri	-13428
▁Worse	-13429
▁bible	-13430
▁climb	-13431
▁cohes	-13432
▁fills	-13433
▁kudos	-13434
▁pause	-13435
▁plate	-13436
▁relev	-13437
▁snuff	-13438
▁tapes	-13439
▁trace	-13440
▁vomit	-13441
bearing	-13442
otional	-13443
redited	-13444
▁Blaise	-13445
▁Hidden	-13446
▁Shadow	-13447
▁Truman	-13448
▁Winter	-13449
▁blacks	-13450
▁depths	-13451
▁eleven	-13452
▁freaks	-13453
▁hybrid	-13454
▁melanc	-13455
▁midget	-13456
▁raunch	-13457
▁retrie	-13458
▁sleeps	-13459
▁smiles	-13460
▁sought	-13461
▁sucker	-13462
▁wholes	-13463
▁Detroit	-13464
▁Emperor	-13465
▁Gooding	-13466
▁Million	-13467
▁Netflix	-13468
▁Shepard	-13469
▁Shining	-13470
▁affairs	-13471
▁airport	-13472
▁cliched	-13473
▁diverse	-13474
▁fanatic	-13475
▁injured	-13476
▁masters	-13477
▁motions	-13478
▁pattern	-13479
▁privile	-13480
▁proving	-13481
▁psyched	-13482
▁pursued	-13483
▁raising	-13484
▁reverse	-13485
▁rounded	-13486
▁stardom	-13487
▁vintage	-13488
essential	-13489
▁Atlantis	-13490
▁Minnelli	-13491
▁Secondly	-13492
▁Speaking	-13493
▁Vampires	-13494
▁Westerns	-13495
▁attended	-13496
▁champion	-13497
▁crashing	-13498
▁cultures	-13499
▁deterior	-13500
▁generate	-13501
▁likewise	-13502
▁respects	-13503
▁spirited	-13504
▁vehicles	-13505
▁Character	-13506
▁Christina	-13507
▁absorbing	-13508
▁breakdown	-13509
▁convicted	-13510
▁delicious	-13511
▁inconsist	-13512
▁parallels	-13513
▁redundant	-13514
▁reviewing	-13515
▁Thankfully	-13516
▁denouement	-13517
▁phenomenal	-13518
▁unanswered	-13519
▁anticipated	-13520
▁contestants	-13521
▁informative	-13522
▁delightfully	-13523
)?	-13524
FF	-13525
UE	-13526
uv	-13527
Doo	-13528
Mon	-13529
Sur	-13530
amo	-13531
bar	-13532
gic	-13533
gut	-13534
ieg	-13535
lay	-13536
los	-13537
▁('	-13538
▁6.	-13539
▁GR	-13540
▁Ta	-13541
▁ma	-13542
Hall	-13543
Much	-13544
afoe	-13545
coll	-13546
have	-13547
idan	-13548
isen	-13549
oker	-13550
unga	-13551
unte	-13552
▁Few	-13553
▁GOD	-13554
▁Gov	-13555
▁Ker	-13556
▁Leg	-13557
▁Lup	-13558
▁Sue	-13559
▁TER	-13560
▁jam	-13561
▁nun	-13562
▁ric	-13563
▁sou	-13564
▁voc	-13565
Steve	-13566
arest	-13567
dance	-13568
erman	-13569
gener	-13570
holes	-13571
odder	-13572
odore	-13573
pling	-13574
rimin	-13575
urous	-13576
uture	-13577
▁1996	-13578
▁2003	-13579
▁Deep	-13580
▁Diet	-13581
▁FROM	-13582
▁Hans	-13583
▁Holy	-13584
▁Luis	-13585
▁Nina	-13586
▁Prot	-13587
▁coat	-13588
▁gray	-13589
▁lean	-13590
▁mour	-13591
▁mute	-13592
▁omin	-13593
▁pump	-13594
▁synt	-13595
ARNING	-13596
Daniel	-13597
Return	-13598
emisia	-13599
engers	-13600
orsese	-13601
rected	-13602
▁Agent	-13603
▁Chong	-13604
▁Dandy	-13605
▁Happy	-13606
▁Jenna	-13607
▁Monty	-13608
▁Russo	-13609
▁Train	-13610
▁advis	-13611
▁aided	-13612
▁bombs	-13613
▁owned	-13614
▁prank	-13615
▁showc	-13616
▁smash	-13617
▁swept	-13618
▁teams	-13619
ablanca	-13620
autiful	-13621
fiction	-13622
ignific	-13623
uracies	-13624
▁/>7/10	-13625
▁10/10.	-13626
▁Govern	-13627
▁Impact	-13628
▁Lauren	-13629
▁Mostly	-13630
▁Ronald	-13631
▁Runner	-13632
▁Stella	-13633
▁abound	-13634
▁approx	-13635
▁bitten	-13636
▁bosses	-13637
▁enlist	-13638
▁glance	-13639
▁injust	-13640
▁insuff	-13641
▁lavish	-13642
▁mouths	-13643
▁paints	-13644
▁retros	-13645
▁sorrow	-13646
▁traits	-13647
▁videot	-13648
▁wastes	-13649
iverance	-13650
▁Bridges	-13651
▁Clooney	-13652
▁Collins	-13653
▁Dentist	-13654
▁Harriet	-13655
▁Indiana	-13656
▁Israeli	-13657
▁Network	-13658
▁implied	-13659
▁longest	-13660
▁masturb	-13661
▁neglect	-13662
▁origins	-13663
▁readers	-13664
▁regards	-13665
▁shining	-13666
▁swallow	-13667
▁tourist	-13668
Meanwhile	-13669
▁Collette	-13670
▁Columbia	-13671
▁McCarthy	-13672
▁avoiding	-13673
▁cleaning	-13674
▁dynamics	-13675
▁employee	-13676
▁freaking	-13677
▁jealousy	-13678
▁peculiar	-13679
▁proclaim	-13680
▁promoted	-13681
▁rewarded	-13682
▁seasoned	-13683
▁sensible	-13684
▁stylized	-13685
▁Invisible	-13686
▁aftermath	-13687
▁brainless	-13688
▁endlessly	-13689
▁gentleman	-13690
▁monologue	-13691
▁obstacles	-13692
▁releasing	-13693
▁repressed	-13694
▁sickening	-13695
▁underwear	-13696
▁continuing	-13697
▁distracted	-13698
▁passengers	-13699
▁underworld	-13700
▁demonstrate	-13701
▁intentional	-13702
▁surroundings	-13703
▁tremendously	-13704
▁unsympathetic	-13705
/3	-13706
NY	-13707
ags	-13708
ege	-13709
leg	-13710
lli	-13711
owa	-13712
rio	-13713
wit	-13714
▁FE	-13715
▁Fr	-13716
Cast	-13717
Home	-13718
King	-13719
Rose	-13720
abol	-13721
arty	-13722
avan	-13723
conf	-13724
does	-13725
ghan	-13726
gone	-13727
haha	-13728
rock	-13729
take	-13730
uese	-13731
wall	-13732
▁Ban	-13733
▁Buy	-13734
▁Ced	-13735
▁Fal	-13736
▁Hog	-13737
▁NOW	-13738
▁Sel	-13739
▁Und	-13740
▁Wee	-13741
▁pup	-13742
falls	-13743
ierre	-13744
jokes	-13745
opers	-13746
regor	-13747
ulent	-13748
▁*1/2	-13749
▁1920	-13750
▁Anil	-13751
▁Batt	-13752
▁Corn	-13753
▁Cort	-13754
▁Marx	-13755
▁Otto	-13756
▁Same	-13757
▁alot	-13758
▁brow	-13759
▁deft	-13760
▁drab	-13761
▁http	-13762
▁owes	-13763
▁quot	-13764
▁taut	-13765
arious	-13766
dyssey	-13767
mented	-13768
oylent	-13769
▁Arkin	-13770
▁Combs	-13771
▁Crist	-13772
▁Dafoe	-13773
▁Fever	-13774
▁Front	-13775
▁Guess	-13776
▁Judge	-13777
▁Kings	-13778
▁STILL	-13779
▁bones	-13780
▁caret	-13781
▁cries	-13782
▁dwarf	-13783
▁hyped	-13784
▁medic	-13785
▁poses	-13786
▁prote	-13787
▁stray	-13788
▁trump	-13789
▁tuned	-13790
▁whims	-13791
eredith	-13792
goblins	-13793
inction	-13794
landish	-13795
parents	-13796
profess	-13797
▁Debbie	-13798
▁Duchov	-13799
▁Gibson	-13800
▁Haines	-13801
▁Harlow	-13802
▁Olivia	-13803
▁Porter	-13804
▁Psycho	-13805
▁Simple	-13806
▁Sweden	-13807
▁advers	-13808
▁aiming	-13809
▁bounty	-13810
▁centre	-13811
▁ensure	-13812
▁fierce	-13813
▁frames	-13814
▁freaky	-13815
▁hollow	-13816
▁incarn	-13817
▁knocks	-13818
▁morons	-13819
▁mutual	-13820
▁skinny	-13821
▁subway	-13822
▁thrust	-13823
▁unconv	-13824
▁undead	-13825
▁upside	-13826
periment	-13827
tersweet	-13828
▁Beckham	-13829
▁Bernsen	-13830
▁Cheadle	-13831
▁Citizen	-13832
▁Clearly	-13833
▁Company	-13834
▁Cushing	-13835
▁DeMille	-13836
▁Elliott	-13837
▁Firstly	-13838
▁Frances	-13839
▁Gregory	-13840
▁Gwyneth	-13841
▁Samurai	-13842
▁circles	-13843
▁constit	-13844
▁descend	-13845
▁embrace	-13846
▁fleshed	-13847
▁forties	-13848
▁funding	-13849
▁inexper	-13850
▁intertw	-13851
▁mirrors	-13852
▁parking	-13853
▁records	-13854
▁serials	-13855
▁skilled	-13856
▁thieves	-13857
appealing	-13858
indulgent	-13859
▁Brashear	-13860
▁Children	-13861
▁Franklin	-13862
▁Together	-13863
▁Whenever	-13864
▁choosing	-13865
▁covering	-13866
▁crippled	-13867
▁massacre	-13868
▁mystical	-13869
▁nutshell	-13870
▁plodding	-13871
▁produces	-13872
▁reviewed	-13873
▁stalking	-13874
▁Robertson	-13875
▁Schneider	-13876
▁accepting	-13877
▁arguments	-13878
▁assembled	-13879
▁attacking	-13880
▁evidently	-13881
▁exploding	-13882
▁furniture	-13883
▁suspected	-13884
▁vignettes	-13885
▁colleagues	-13886
▁commitment	-13887
▁detectives	-13888
▁legitimate	-13889
▁playwright	-13890
▁possession	-13891
▁restrained	-13892
▁underwater	-13893
▁concentrate	-13894
▁embarrassingly	-13895
Bec	-13896
Get	-13897
Jon	-13898
Men	-13899
RAP	-13900
URE	-13901
fem	-13902
gas	-13903
kar	-13904
roe	-13905
umn	-13906
▁Ay	-13907
▁Gy	-13908
▁MJ	-13909
▁WE	-13910
▁gy	-13911
More	-13912
clim	-13913
door	-13914
fman	-13915
icer	-13916
much	-13917
opic	-13918
prom	-13919
uded	-13920
unks	-13921
warz	-13922
yeah	-13923
▁/>9	-13924
▁Bin	-13925
▁Bou	-13926
▁END	-13927
▁Fry	-13928
▁Gus	-13929
▁HOW	-13930
▁Mem	-13931
▁Pak	-13932
▁dil	-13933
Brien	-13934
assic	-13935
build	-13936
enger	-13937
ipper	-13938
izoph	-13939
onous	-13940
scene	-13941
zanne	-13942
▁Cody	-13943
▁Mead	-13944
▁Shat	-13945
▁Thin	-13946
▁Vera	-13947
▁abst	-13948
▁angu	-13949
▁bats	-13950
▁bran	-13951
▁cage	-13952
▁liqu	-13953
▁rope	-13954
▁sinc	-13955
▁tent	-13956
▁unde	-13957
Unlike	-13958
atered	-13959
orical	-13960
owered	-13961
people	-13962
veyard	-13963
▁Blunt	-13964
▁Conan	-13965
▁Evans	-13966
▁Fight	-13967
▁Forsy	-13968
▁Korea	-13969
▁Leave	-13970
▁Meyer	-13971
▁Money	-13972
▁Olsen	-13973
▁Shang	-13974
▁Vince	-13975
▁arche	-13976
▁athle	-13977
▁chill	-13978
▁crown	-13979
▁fever	-13980
▁havoc	-13981
▁horny	-13982
▁innue	-13983
▁joint	-13984
▁pound	-13985
▁ranch	-13986
▁reper	-13987
▁revis	-13988
▁slack	-13989
▁sober	-13990
▁spray	-13991
▁traps	-13992
▁unner	-13993
Titanic	-13994
athered	-13995
despite	-13996
▁Coburn	-13997
▁Denise	-13998
▁Empire	-13999
▁Greene	-14000
▁Jersey	-14001
▁Liotta	-14002
▁Python	-14003
▁Snipes	-14004
▁Wayans	-14005
▁adjust	-14006
▁bewild	-14007
▁bikini	-14008
▁blamed	-14009
▁expose	-14010
▁fields	-14011
▁filthy	-14012
▁mighty	-14013
▁ordeal	-14014
▁pocket	-14015
▁policy	-14016
▁swords	-14017
▁trauma	-14018
izophren	-14019
▁Dominic	-14020
▁Herbert	-14021
▁Jacques	-14022
▁Miranda	-14023
▁Parsons	-14024
▁Service	-14025
▁Spencer	-14026
▁admired	-14027
▁carnage	-14028
▁compris	-14029
▁discipl	-14030
▁dumbest	-14031
▁macabre	-14032
▁novelty	-14033
▁periods	-14034
▁readily	-14035
▁rightly	-14036
▁slapped	-14037
▁stabbed	-14038
▁stalked	-14039
conceived	-14040
itionally	-14041
▁Bachchan	-14042
▁Samantha	-14043
▁Scorsese	-14044
▁Simpsons	-14045
▁Stargate	-14046
▁Thailand	-14047
▁Venezuel	-14048
▁Visconti	-14049
▁achieves	-14050
▁artistry	-14051
▁balanced	-14052
▁daylight	-14053
▁informed	-14054
▁likeable	-14055
▁minister	-14056
▁peaceful	-14057
▁salesman	-14058
▁survivor	-14059
▁thirties	-14060
▁tomatoes	-14061
▁Silverman	-14062
▁afterward	-14063
▁centuries	-14064
▁depending	-14065
▁forbidden	-14066
▁inclusion	-14067
▁instances	-14068
▁invention	-14069
▁originals	-14070
▁populated	-14071
▁principle	-14072
▁scenarios	-14073
▁unusually	-14074
▁unwilling	-14075
documentary	-14076
▁assignment	-14077
▁collective	-14078
▁shockingly	-14079
▁statements	-14080
▁university	-14081
▁wheelchair	-14082
▁Renaissance	-14083
▁bittersweet	-14084
▁respectable	-14085
▁unappealing	-14086
▁mysteriously	-14087
▁homosexuality	-14088
!?	-14089
IND	-14090
VIL	-14091
Wor	-14092
bes	-14093
iju	-14094
jas	-14095
▁(1	-14096
▁4,	-14097
▁9.	-14098
Hara	-14099
Moon	-14100
Show	-14101
Step	-14102
acha	-14103
anza	-14104
asqu	-14105
best	-14106
educ	-14107
empl	-14108
fini	-14109
grat	-14110
iana	-14111
iler	-14112
jerk	-14113
lund	-14114
mart	-14115
rice	-14116
rita	-14117
stra	-14118
▁Cul	-14119
▁Hoo	-14120
▁Lon	-14121
▁Nik	-14122
▁Oct	-14123
▁Rea	-14124
▁Ret	-14125
▁Web	-14126
▁mim	-14127
Chris	-14128
White	-14129
aside	-14130
enton	-14131
iator	-14132
polit	-14133
ridge	-14134
scape	-14135
takes	-14136
thank	-14137
uting	-14138
▁Bath	-14139
▁Hawn	-14140
▁Lead	-14141
▁Omar	-14142
▁beef	-14143
▁buys	-14144
▁coma	-14145
▁conj	-14146
▁drew	-14147
▁fuel	-14148
▁gymn	-14149
▁lawn	-14150
▁lock	-14151
▁mins	-14152
▁mold	-14153
▁pose	-14154
▁snob	-14155
▁sunk	-14156
▁void	-14157
▁zone	-14158
Batman	-14159
advert	-14160
ardieu	-14161
arette	-14162
eating	-14163
giving	-14164
hanger	-14165
irious	-14166
lestar	-14167
mighty	-14168
onents	-14169
osedly	-14170
pieces	-14171
▁Bauer	-14172
▁Beach	-14173
▁Bravo	-14174
▁Brent	-14175
▁Brett	-14176
▁Faith	-14177
▁Kathy	-14178
▁Nolte	-14179
▁Vonne	-14180
▁WRONG	-14181
▁Wrong	-14182
▁clerk	-14183
▁clone	-14184
▁daddy	-14185
▁manic	-14186
▁patch	-14187
▁phase	-14188
▁rides	-14189
▁royal	-14190
▁scant	-14191
▁sells	-14192
▁users	-14193
▁worms	-14194
Because	-14195
meaning	-14196
pionage	-14197
▁/>****	-14198
▁Chance	-14199
▁Ernest	-14200
▁Godard	-14201
▁Goldie	-14202
▁Jagger	-14203
▁Keller	-14204
▁Melvyn	-14205
▁Mormon	-14206
▁Palest	-14207
▁Plenty	-14208
▁Rohmer	-14209
▁Spinal	-14210
▁Stiles	-14211
▁Terror	-14212
▁breast	-14213
▁bureau	-14214
▁campus	-14215
▁dealer	-14216
▁defies	-14217
▁glossy	-14218
▁hooker	-14219
▁joking	-14220
▁kidnap	-14221
▁marked	-14222
▁occult	-14223
▁popped	-14224
▁pounds	-14225
▁rehash	-14226
▁revers	-14227
▁shrink	-14228
▁slaves	-14229
▁snakes	-14230
▁verbal	-14231
ountered	-14232
producer	-14233
▁Beowulf	-14234
▁Muslims	-14235
▁Turkish	-14236
▁anxious	-14237
▁applies	-14238
▁excuses	-14239
▁ignores	-14240
▁monkeys	-14241
▁ominous	-14242
▁qualify	-14243
▁stating	-14244
▁windows	-14245
abilities	-14246
omination	-14247
▁Anything	-14248
▁Directed	-14249
▁Garfield	-14250
▁Meredith	-14251
▁acquired	-14252
▁capacity	-14253
▁elephant	-14254
▁escaping	-14255
▁gestures	-14256
▁insomnia	-14257
▁invasion	-14258
▁medieval	-14259
▁rambling	-14260
▁relating	-14261
▁uniforms	-14262
▁unstable	-14263
Everything	-14264
▁Valentine	-14265
▁ambitions	-14266
▁attending	-14267
▁blackmail	-14268
▁breathing	-14269
▁customers	-14270
▁followers	-14271
▁intensely	-14272
▁mythology	-14273
▁prejudice	-14274
▁regularly	-14275
▁relevance	-14276
▁screwball	-14277
▁spaceship	-14278
▁Enterprise	-14279
▁Production	-14280
▁confronted	-14281
▁enchanting	-14282
▁contributed	-14283
▁encountered	-14284
▁psychedelic	-14285
▁remembering	-14286
▁inaccuracies	-14287
▁psychologist	-14288
▁relentlessly	-14289
▁misunderstood	-14290
/4	-14291
AG	-14292
OH	-14293
TS	-14294
ev	-14295
Ali	-14296
Mid	-14297
Ter	-14298
bie	-14299
pop	-14300
sim	-14301
uer	-14302
ulu	-14303
yon	-14304
▁4-	-14305
▁DJ	-14306
▁Dw	-14307
▁PS	-14308
▁fo	-14309
AAAA	-14310
Film	-14311
Jean	-14312
Take	-14313
akis	-14314
bath	-14315
bles	-14316
cier	-14317
eria	-14318
fare	-14319
five	-14320
gang	-14321
holm	-14322
iami	-14323
iate	-14324
ichi	-14325
kers	-14326
lein	-14327
pons	-14328
ucci	-14329
uire	-14330
ulpt	-14331
usch	-14332
zech	-14333
▁40'	-14334
▁Duk	-14335
▁Faw	-14336
▁Hos	-14337
▁Pfe	-14338
▁Spy	-14339
▁dia	-14340
Jason	-14341
Paris	-14342
Sorry	-14343
Techn	-14344
athom	-14345
chron	-14346
count	-14347
cular	-14348
first	-14349
ician	-14350
iking	-14351
jamin	-14352
nings	-14353
ocaly	-14354
oodoo	-14355
phone	-14356
uropa	-14357
volta	-14358
▁1971	-14359
▁1999	-14360
▁2007	-14361
▁Body	-14362
▁Butt	-14363
▁Farn	-14364
▁Heck	-14365
▁Jude	-14366
▁Keep	-14367
▁Kris	-14368
▁Lans	-14369
▁Mond	-14370
▁Niel	-14371
▁Tess	-14372
▁coke	-14373
▁mail	-14374
▁mice	-14375
▁shat	-14376
▁slam	-14377
▁soup	-14378
▁spit	-14379
▁wine	-14380
encing	-14381
iolent	-14382
itious	-14383
rendel	-14384
▁Aaron	-14385
▁Gackt	-14386
▁Going	-14387
▁Hayes	-14388
▁Lance	-14389
▁Mamet	-14390
▁NIGHT	-14391
▁Romeo	-14392
▁Royal	-14393
▁Sheen	-14394
▁Tales	-14395
▁Urban	-14396
▁blink	-14397
▁bloss	-14398
▁depra	-14399
▁downs	-14400
▁fifth	-14401
▁lends	-14402
▁midst	-14403
▁polar	-14404
▁slide	-14405
▁slugs	-14406
Charles	-14407
cending	-14408
inating	-14409
raction	-14410
▁Afghan	-14411
▁Boring	-14412
▁Cambod	-14413
▁Cedric	-14414
▁Claude	-14415
▁Harron	-14416
▁Herman	-14417
▁Hollow	-14418
▁Kinski	-14419
▁Pumbaa	-14420
▁backed	-14421
▁casino	-14422
▁dumped	-14423
▁impecc	-14424
▁intact	-14425
▁invite	-14426
▁pirate	-14427
▁puzzle	-14428
▁rounds	-14429
▁shades	-14430
▁stance	-14431
▁trivia	-14432
▁tunnel	-14433
▁uncons	-14434
▁volume	-14435
--------	-14436
Watching	-14437
iciently	-14438
▁Crystal	-14439
▁Madison	-14440
▁Martino	-14441
▁Northam	-14442
▁Phantom	-14443
▁colored	-14444
▁expense	-14445
▁frantic	-14446
▁frontal	-14447
▁inmates	-14448
▁nuanced	-14449
▁reports	-14450
▁sources	-14451
▁tickets	-14452
▁uncanny	-14453
▁widowed	-14454
Basically	-14455
alifornia	-14456
▁Exorcist	-14457
▁Moreover	-14458
▁Pfeiffer	-14459
▁Vonnegut	-14460
▁adaption	-14461
▁explodes	-14462
▁exterior	-14463
▁magician	-14464
▁pointing	-14465
▁resident	-14466
▁schedule	-14467
▁upcoming	-14468
▁Blandings	-14469
▁Galactica	-14470
▁Notorious	-14471
▁Victorian	-14472
▁awareness	-14473
▁criticize	-14474
▁discussed	-14475
▁festivals	-14476
▁horrified	-14477
▁maintains	-14478
▁sentences	-14479
▁sincerity	-14480
▁strengths	-14481
▁translate	-14482
▁warehouse	-14483
▁Admittedly	-14484
▁Depression	-14485
▁Ultimately	-14486
▁aggressive	-14487
▁celebrated	-14488
▁contestant	-14489
▁disrespect	-14490
▁executives	-14491
▁outlandish	-14492
▁resembling	-14493
▁sufficient	-14494
▁witchcraft	-14495
▁Interesting	-14496
▁controversy	-14497
▁introducing	-14498
▁establishing	-14499
▁excruciating	-14500
▁investigator	-14501
................	-14502
Gr	-14503
PD	-14504
Air	-14505
Del	-14506
Hen	-14507
ILD	-14508
Sat	-14509
aky	-14510
cou	-14511
dle	-14512
ige	-14513
mun	-14514
ova	-14515
uso	-14516
▁'6	-14517
▁ec	-14518
▁ok	-14519
Barb	-14520
Girl	-14521
IBLE	-14522
blem	-14523
dict	-14524
hine	-14525
ifty	-14526
ilyn	-14527
imbo	-14528
inea	-14529
inky	-14530
omas	-14531
oren	-14532
post	-14533
tail	-14534
thin	-14535
trap	-14536
umpy	-14537
ypse	-14538
zman	-14539
▁Bil	-14540
▁Kas	-14541
▁Ran	-14542
▁Roe	-14543
▁Sgt	-14544
▁VCR	-14545
▁dun	-14546
▁jet	-14547
▁ram	-14548
▁vic	-14549
Brian	-14550
amour	-14551
enses	-14552
steps	-14553
upert	-14554
whose	-14555
write	-14556
wrote	-14557
▁Alas	-14558
▁Crow	-14559
▁Giov	-14560
▁July	-14561
▁Liam	-14562
▁Pass	-14563
▁Sond	-14564
▁agon	-14565
▁bald	-14566
▁conn	-14567
▁desk	-14568
▁hats	-14569
▁loat	-14570
▁meal	-14571
▁pans	-14572
▁plug	-14573
▁pros	-14574
▁rose	-14575
▁scam	-14576
▁shoe	-14577
▁soph	-14578
▁sway	-14579
▁tube	-14580
apture	-14581
ciless	-14582
gerald	-14583
urring	-14584
voiced	-14585
▁Clara	-14586
▁Doesn	-14587
▁Dunst	-14588
▁Ernie	-14589
▁Islam	-14590
▁Levin	-14591
▁Philo	-14592
▁Seems	-14593
▁agony	-14594
▁beard	-14595
▁biker	-14596
▁catal	-14597
▁clash	-14598
▁dolls	-14599
▁draft	-14600
▁ensue	-14601
▁north	-14602
▁quasi	-14603
▁seats	-14604
▁sunny	-14605
▁vapid	-14606
▁wings	-14607
fighter	-14608
iterate	-14609
ouching	-14610
▁Animal	-14611
▁Creasy	-14612
▁Dahmer	-14613
▁Prison	-14614
▁Reagan	-14615
▁Silent	-14616
▁archae	-14617
▁coffin	-14618
▁cookie	-14619
▁exempl	-14620
▁junior	-14621
▁mutant	-14622
▁psyche	-14623
▁retain	-14624
▁safely	-14625
▁sculpt	-14626
▁stroke	-14627
▁summed	-14628
inducing	-14629
ittingly	-14630
ocalypse	-14631
▁Bennett	-14632
▁Bridget	-14633
▁Goodman	-14634
▁Killers	-14635
▁Lucille	-14636
▁Romance	-14637
▁Schwarz	-14638
▁Voyager	-14639
▁Wendigo	-14640
▁caution	-14641
▁coolest	-14642
▁eagerly	-14643
▁literal	-14644
▁luckily	-14645
▁lurking	-14646
▁perplex	-14647
▁rejects	-14648
▁repeats	-14649
▁snowman	-14650
▁suffice	-14651
▁sustain	-14652
▁tightly	-14653
▁unclear	-14654
adventure	-14655
hological	-14656
▁Angelina	-14657
▁Dietrich	-14658
▁Dreyfuss	-14659
▁Egyptian	-14660
▁Midnight	-14661
▁Rowlands	-14662
▁Shepherd	-14663
▁administ	-14664
▁atrocity	-14665
▁cheerful	-14666
▁chuckles	-14667
▁comeback	-14668
▁deciding	-14669
▁dictator	-14670
▁gigantic	-14671
▁glimpses	-14672
▁inadvert	-14673
▁invested	-14674
▁momentum	-14675
▁newcomer	-14676
▁pretends	-14677
▁products	-14678
▁sketches	-14679
▁Artemisia	-14680
▁MacDonald	-14681
▁ambiguity	-14682
▁enigmatic	-14683
▁explosive	-14684
▁extensive	-14685
▁necessity	-14686
▁neglected	-14687
▁perverted	-14688
▁sensation	-14689
▁skeptical	-14690
▁sleepwalk	-14691
▁variation	-14692
Christopher	-14693
▁Portuguese	-14694
▁Television	-14695
▁forgetting	-14696
▁motorcycle	-14697
▁optimistic	-14698
▁resistance	-14699
▁transplant	-14700
▁unfamiliar	-14701
▁deliciously	-14702
▁exclusively	-14703
▁stereotyped	-14704
▁conveniently	-14705
▁lighthearted	-14706
▁manipulation	-14707
▁observations	-14708
▁realistically	-14709
▁characteristic	-14710
"<	-14711
NG	-14712
UB	-14713
Wr	-14714
db	-14715
ARK	-14716
Joe	-14717
Pet	-14718
loe	-14719
pal	-14720
pen	-14721
riz	-14722
▁28	-14723
▁FO	-14724
▁Ja	-14725
▁om	-14726
Alex	-14727
erty	-14728
etta	-14729
fell	-14730
hild	-14731
itel	-14732
itte	-14733
moon	-14734
nell	-14735
nice	-14736
osal	-14737
sets	-14738
uing	-14739
vere	-14740
▁'80	-14741
▁101	-14742
▁BET	-14743
▁BOR	-14744
▁Egg	-14745
▁Fun	-14746
▁IMO	-14747
▁Jos	-14748
▁Mos	-14749
▁Tib	-14750
▁sib	-14751
Jones	-14752
Story	-14753
Those	-14754
added	-14755
drawn	-14756
ellow	-14757
elope	-14758
ester	-14759
ianni	-14760
ilmer	-14761
itors	-14762
lings	-14763
loria	-14764
odiac	-14765
opard	-14766
twist	-14767
▁/>4.	-14768
▁1997	-14769
▁2002	-14770
▁Barr	-14771
▁Dall	-14772
▁Dern	-14773
▁Jedi	-14774
▁Juan	-14775
▁Mald	-14776
▁Tara	-14777
▁Vers	-14778
▁Wins	-14779
▁bias	-14780
▁cram	-14781
▁exit	-14782
▁faux	-14783
▁gard	-14784
▁mand	-14785
▁nymp	-14786
▁pier	-14787
▁salt	-14788
Unless	-14789
olfini	-14790
ombard	-14791
▁Anita	-14792
▁Claud	-14793
▁Czech	-14794
▁Daisy	-14795
▁Fritz	-14796
▁Joker	-14797
▁Pitch	-14798
▁Ricky	-14799
▁Thief	-14800
▁Throw	-14801
▁ample	-14802
▁artif	-14803
▁boost	-14804
▁conco	-14805
▁epics	-14806
▁imper	-14807
▁items	-14808
▁monks	-14809
▁pains	-14810
▁panic	-14811
▁shift	-14812
▁soooo	-14813
▁stubb	-14814
▁thumb	-14815
▁vault	-14816
▁verge	-14817
Besides	-14818
culture	-14819
forming	-14820
however	-14821
inarily	-14822
inently	-14823
omaniac	-14824
prising	-14825
▁Bonnie	-14826
▁Finney	-14827
▁Garden	-14828
▁Hannah	-14829
▁Hardly	-14830
▁Muppet	-14831
▁Whilst	-14832
▁assure	-14833
▁fabric	-14834
▁gloomy	-14835
▁injury	-14836
▁orange	-14837
▁resume	-14838
▁scarce	-14839
▁senior	-14840
▁shocks	-14841
▁trains	-14842
▁turtle	-14843
▁varied	-14844
actually	-14845
spirited	-14846
▁Aniston	-14847
▁Fernand	-14848
▁Ferrell	-14849
▁Iranian	-14850
▁Kirsten	-14851
▁Kolchak	-14852
▁Marilyn	-14853
▁Maureen	-14854
▁Revenge	-14855
▁Seattle	-14856
▁Streets	-14857
▁baddies	-14858
▁borders	-14859
▁demonst	-14860
▁flamboy	-14861
▁flowers	-14862
▁furious	-14863
▁intoler	-14864
▁prolong	-14865
▁request	-14866
▁reunite	-14867
▁ruining	-14868
▁session	-14869
▁tactics	-14870
▁traffic	-14871
▁virtual	-14872
▁warrant	-14873
ocalyptic	-14874
▁Haunting	-14875
▁Isabelle	-14876
▁Juliette	-14877
▁Kristoff	-14878
▁colonial	-14879
▁enduring	-14880
▁feminine	-14881
▁foremost	-14882
▁hardened	-14883
▁imprison	-14884
▁indicate	-14885
▁meantime	-14886
▁paranoid	-14887
▁shameful	-14888
▁tomorrow	-14889
Cinderella	-14890
▁Stephanie	-14891
▁addressed	-14892
▁disregard	-14893
▁espionage	-14894
▁graveyard	-14895
▁incidents	-14896
▁irritated	-14897
▁unfolding	-14898
▁unnatural	-14899
▁Fitzgerald	-14900
▁captivated	-14901
▁favourites	-14902
▁investment	-14903
▁monotonous	-14904
▁progressed	-14905
▁similarity	-14906
▁werewolves	-14907
▁acknowledge	-14908
▁celebrities	-14909
▁distributed	-14910
▁girlfriends	-14911
▁overbearing	-14912
▁participate	-14913
▁pornography	-14914
▁dramatically	-14915
▁hysterically	-14916
▁participants	-14917
▁screenwriters	-14918
▁Cinematography	-14919
▁understatement	-14920
?,	-14921
DY	-14922
EM	-14923
EP	-14924
PP	-14925
ht	-14926
iy	-14927
-10	-14928
200	-14929
Dog	-14930
OUT	-14931
Rec	-14932
Van	-14933
aro	-14934
bat	-14935
bot	-14936
cal	-14937
cre	-14938
cur	-14939
din	-14940
nor	-14941
olo	-14942
rot	-14943
sub	-14944
zor	-14945
▁Ve	-14946
▁dv	-14947
arte	-14948
bach	-14949
chal	-14950
chet	-14951
cope	-14952
fish	-14953
icky	-14954
ingo	-14955
izza	-14956
osis	-14957
oust	-14958
uber	-14959
▁'60	-14960
▁Box	-14961
▁Dur	-14962
▁Ear	-14963
▁GET	-14964
▁Led	-14965
▁Lie	-14966
▁Mee	-14967
▁Nan	-14968
▁Soc	-14969
▁WOW	-14970
▁bum	-14971
▁maj	-14972
▁upt	-14973
aughn	-14974
avour	-14975
grave	-14976
ommel	-14977
opath	-14978
rates	-14979
rsula	-14980
store	-14981
tones	-14982
udder	-14983
urica	-14984
▁/>1)	-14985
▁1936	-14986
▁Aven	-14987
▁Bere	-14988
▁Crim	-14989
▁Glad	-14990
▁Gris	-14991
▁Hand	-14992
▁Kust	-14993
▁Moss	-14994
▁Murd	-14995
▁Pant	-14996
▁Pere	-14997
▁Writ	-14998
▁apes	-14999
▁begs	-15000
▁gate	-15001
▁rapt	-15002
▁rook	-15003
▁stoo	-15004
▁stor	-15005
ailing	-15006
arting	-15007
forman	-15008
ijuana	-15009
little	-15010
marish	-15011
render	-15012
second	-15013
ternal	-15014
umbled	-15015
witted	-15016
worker	-15017
▁Busby	-15018
▁Chang	-15019
▁Cindy	-15020
▁Cross	-15021
▁Debra	-15022
▁Lives	-15023
▁Loved	-15024
▁Mafia	-15025
▁Paula	-15026
▁Payne	-15027
▁Rocky	-15028
▁begun	-15029
▁concl	-15030
▁cycle	-15031
▁diner	-15032
▁downt	-15033
▁flirt	-15034
▁flows	-15035
▁fores	-15036
▁fuzzy	-15037
▁ghast	-15038
▁groan	-15039
▁haunt	-15040
▁lurid	-15041
▁slips	-15042
▁stair	-15043
▁taboo	-15044
▁toned	-15045
▁weary	-15046
appreci	-15047
ashions	-15048
ceptive	-15049
ubitsch	-15050
veheart	-15051
▁Bogdan	-15052
▁Brooke	-15053
▁Carlos	-15054
▁Cassie	-15055
▁Garner	-15056
▁Kilmer	-15057
▁Marvin	-15058
▁Norris	-15059
▁Peckin	-15060
▁Schmid	-15061
▁Sergio	-15062
▁Sophia	-15063
▁amidst	-15064
▁attach	-15065
▁avenge	-15066
▁catast	-15067
▁client	-15068
▁flames	-15069
▁foster	-15070
▁harass	-15071
▁intend	-15072
▁jacket	-15073
▁karate	-15074
▁mentor	-15075
▁mobile	-15076
▁molest	-15077
▁payoff	-15078
▁phones	-15079
▁planes	-15080
▁pushes	-15081
▁regist	-15082
▁sailor	-15083
▁sanity	-15084
▁sights	-15085
▁sophom	-15086
▁update	-15087
▁weekly	-15088
vability	-15089
▁Britney	-15090
▁Command	-15091
▁Englund	-15092
▁Fantasy	-15093
[...]
